{
  "version": "1.0",
  "truncation": null,
  "padding": null,
  "added_tokens": [
    {
      "id": 0,
      "content": "[UNK]",
      "single_word": false,
      "lstrip": false,
      "rstrip": false,
      "normalized": false,
      "special": true
    },
    {
      "id": 1,
      "content": "[CLS]",
      "single_word": false,
      "lstrip": false,
      "rstrip": false,
      "normalized": false,
      "special": true
    },
    {
      "id": 2,
      "content": "[SEP]",
      "single_word": false,
      "lstrip": false,
      "rstrip": false,
      "normalized": false,
      "special": true
    },
    {
      "id": 3,
      "content": "[PAD]",
      "single_word": false,
      "lstrip": false,
      "rstrip": false,
      "normalized": false,
      "special": true
    },
    {
      "id": 4,
      "content": "[MASK]",
      "single_word": false,
      "lstrip": false,
      "rstrip": false,
      "normalized": false,
      "special": true
    }
  ],
  "normalizer": null,
  "pre_tokenizer": {
    "type": "Whitespace"
  },
  "post_processor": null,
  "decoder": null,
  "model": {
    "type": "BPE",
    "dropout": null,
    "unk_token": null,
    "continuing_subword_prefix": null,
    "end_of_word_suffix": null,
    "fuse_unk": false,
    "byte_fallback": false,
    "ignore_merges": false,
    "vocab": {
      "[UNK]": 0,
      "[CLS]": 1,
      "[SEP]": 2,
      "[PAD]": 3,
      "[MASK]": 4,
      "!": 5,
      "\"": 6,
      "#": 7,
      "$": 8,
      "%": 9,
      "&": 10,
      "'": 11,
      "(": 12,
      ")": 13,
      "*": 14,
      "+": 15,
      ",": 16,
      "-": 17,
      ".": 18,
      "/": 19,
      "0": 20,
      "1": 21,
      "2": 22,
      "3": 23,
      "4": 24,
      "5": 25,
      "6": 26,
      "7": 27,
      "8": 28,
      "9": 29,
      ":": 30,
      ";": 31,
      "<": 32,
      "=": 33,
      ">": 34,
      "?": 35,
      "@": 36,
      "A": 37,
      "B": 38,
      "C": 39,
      "D": 40,
      "E": 41,
      "F": 42,
      "G": 43,
      "H": 44,
      "I": 45,
      "J": 46,
      "K": 47,
      "L": 48,
      "M": 49,
      "N": 50,
      "O": 51,
      "P": 52,
      "Q": 53,
      "R": 54,
      "S": 55,
      "T": 56,
      "U": 57,
      "V": 58,
      "W": 59,
      "X": 60,
      "Y": 61,
      "Z": 62,
      "[": 63,
      "\\": 64,
      "]": 65,
      "^": 66,
      "_": 67,
      "`": 68,
      "a": 69,
      "b": 70,
      "c": 71,
      "d": 72,
      "e": 73,
      "f": 74,
      "g": 75,
      "h": 76,
      "i": 77,
      "j": 78,
      "k": 79,
      "l": 80,
      "m": 81,
      "n": 82,
      "o": 83,
      "p": 84,
      "q": 85,
      "r": 86,
      "s": 87,
      "t": 88,
      "u": 89,
      "v": 90,
      "w": 91,
      "x": 92,
      "y": 93,
      "z": 94,
      "{": 95,
      "|": 96,
      "}": 97,
      "~": 98,
      "": 99,
      "": 100,
      "": 101,
      "": 102,
      "": 103,
      "¡": 104,
      "¢": 105,
      "£": 106,
      "¥": 107,
      "§": 108,
      "©": 109,
      "«": 110,
      "¬": 111,
      "­": 112,
      "®": 113,
      "¯": 114,
      "°": 115,
      "±": 116,
      "²": 117,
      "³": 118,
      "´": 119,
      "µ": 120,
      "¶": 121,
      "·": 122,
      "¸": 123,
      "º": 124,
      "»": 125,
      "¼": 126,
      "½": 127,
      "¾": 128,
      "¿": 129,
      "Á": 130,
      "Ä": 131,
      "Å": 132,
      "Æ": 133,
      "Ç": 134,
      "É": 135,
      "Ë": 136,
      "Ò": 137,
      "Ó": 138,
      "Õ": 139,
      "Ö": 140,
      "×": 141,
      "Ø": 142,
      "Ú": 143,
      "Ü": 144,
      "ß": 145,
      "à": 146,
      "á": 147,
      "â": 148,
      "ã": 149,
      "ä": 150,
      "å": 151,
      "æ": 152,
      "ç": 153,
      "è": 154,
      "é": 155,
      "ê": 156,
      "ë": 157,
      "ì": 158,
      "í": 159,
      "î": 160,
      "ï": 161,
      "ð": 162,
      "ñ": 163,
      "ò": 164,
      "ó": 165,
      "ô": 166,
      "õ": 167,
      "ö": 168,
      "÷": 169,
      "ø": 170,
      "ù": 171,
      "ú": 172,
      "û": 173,
      "ü": 174,
      "ý": 175,
      "þ": 176,
      "ā": 177,
      "ă": 178,
      "ą": 179,
      "ć": 180,
      "Č": 181,
      "č": 182,
      "ē": 183,
      "ė": 184,
      "ę": 185,
      "ě": 186,
      "Ğ": 187,
      "ğ": 188,
      "ģ": 189,
      "Ī": 190,
      "ī": 191,
      "İ": 192,
      "ı": 193,
      "ł": 194,
      "ń": 195,
      "ņ": 196,
      "Œ": 197,
      "ř": 198,
      "Ś": 199,
      "ś": 200,
      "Ş": 201,
      "ş": 202,
      "Š": 203,
      "š": 204,
      "ţ": 205,
      "Ū": 206,
      "ū": 207,
      "ų": 208,
      "ź": 209,
      "Ż": 210,
      "ż": 211,
      "Ž": 212,
      "ž": 213,
      "ǐ": 214,
      "ǒ": 215,
      "ǚ": 216,
      "ǝ": 217,
      "ə": 218,
      "ʷ": 219,
      "ʺ": 220,
      "ʻ": 221,
      "ʼ": 222,
      "ˆ": 223,
      "˚": 224,
      "̀": 225,
      "́": 226,
      "̄": 227,
      "̆": 228,
      "̈": 229,
      "̶": 230,
      ";": 231,
      "΄": 232,
      "Α": 233,
      "Γ": 234,
      "Δ": 235,
      "Ε": 236,
      "Η": 237,
      "Θ": 238,
      "Ι": 239,
      "Κ": 240,
      "Μ": 241,
      "Ο": 242,
      "Π": 243,
      "Σ": 244,
      "Φ": 245,
      "Χ": 246,
      "Ϊ": 247,
      "ά": 248,
      "έ": 249,
      "ή": 250,
      "ί": 251,
      "α": 252,
      "β": 253,
      "γ": 254,
      "δ": 255,
      "ε": 256,
      "ζ": 257,
      "η": 258,
      "θ": 259,
      "ι": 260,
      "κ": 261,
      "λ": 262,
      "μ": 263,
      "ν": 264,
      "ο": 265,
      "π": 266,
      "ρ": 267,
      "ς": 268,
      "σ": 269,
      "τ": 270,
      "υ": 271,
      "φ": 272,
      "χ": 273,
      "ό": 274,
      "ύ": 275,
      "ώ": 276,
      "Ё": 277,
      "Є": 278,
      "І": 279,
      "Ї": 280,
      "Љ": 281,
      "А": 282,
      "Б": 283,
      "В": 284,
      "Г": 285,
      "Д": 286,
      "Е": 287,
      "Ж": 288,
      "З": 289,
      "И": 290,
      "Й": 291,
      "К": 292,
      "Л": 293,
      "М": 294,
      "Н": 295,
      "О": 296,
      "П": 297,
      "Р": 298,
      "С": 299,
      "Т": 300,
      "У": 301,
      "Ф": 302,
      "Х": 303,
      "Ц": 304,
      "Ч": 305,
      "Ш": 306,
      "Щ": 307,
      "Ъ": 308,
      "Ы": 309,
      "Ь": 310,
      "Э": 311,
      "Ю": 312,
      "Я": 313,
      "а": 314,
      "б": 315,
      "в": 316,
      "г": 317,
      "д": 318,
      "е": 319,
      "ж": 320,
      "з": 321,
      "и": 322,
      "й": 323,
      "к": 324,
      "л": 325,
      "м": 326,
      "н": 327,
      "о": 328,
      "п": 329,
      "р": 330,
      "с": 331,
      "т": 332,
      "у": 333,
      "ф": 334,
      "х": 335,
      "ц": 336,
      "ч": 337,
      "ш": 338,
      "щ": 339,
      "ъ": 340,
      "ы": 341,
      "ь": 342,
      "э": 343,
      "ю": 344,
      "я": 345,
      "ѐ": 346,
      "ё": 347,
      "є": 348,
      "і": 349,
      "ї": 350,
      "ј": 351,
      "њ": 352,
      "ѝ": 353,
      "ў": 354,
      "Ѣ": 355,
      "ѣ": 356,
      "Ѳ": 357,
      "Ґ": 358,
      "ґ": 359,
      "қ": 360,
      "Ұ": 361,
      "ұ": 362,
      "ә": 363,
      "Ӯ": 364,
      "ֿ": 365,
      "ؙ": 366,
      "ا": 367,
      "ت": 368,
      "خ": 369,
      "د": 370,
      "ر": 371,
      "ز": 372,
      "ف": 373,
      "ل": 374,
      "م": 375,
      "ن": 376,
      "ي": 377,
      "ỳ": 378,
      "ὠ": 379,
      "​": 380,
      "‌": 381,
      "‍": 382,
      "‎": 383,
      "‏": 384,
      "‐": 385,
      "‑": 386,
      "‒": 387,
      "–": 388,
      "—": 389,
      "―": 390,
      "‘": 391,
      "’": 392,
      "‚": 393,
      "“": 394,
      "”": 395,
      "„": 396,
      "†": 397,
      "•": 398,
      "․": 399,
      "…": 400,
      "‪": 401,
      "‬": 402,
      "‭": 403,
      "′": 404,
      "″": 405,
      "‽": 406,
      "⁃": 407,
      "⁄": 408,
      "⁠": 409,
      "⁰": 410,
      "₂": 411,
      "₃": 412,
      "₄": 413,
      "₣": 414,
      "₤": 415,
      "€": 416,
      "₽": 417,
      "℃": 418,
      "№": 419,
      "™": 420,
      "⅔": 421,
      "⅛": 422,
      "→": 423,
      "↓": 424,
      "∎": 425,
      "−": 426,
      "∙": 427,
      "∞": 428,
      "≈": 429,
      "≠": 430,
      "≥": 431,
      "⋅": 432,
      "─": 433,
      "╗": 434,
      "■": 435,
      "▲": 436,
      "▶": 437,
      "▼": 438,
      "◆": 439,
      "●": 440,
      "◦": 441,
      "◾": 442,
      "★": 443,
      "☆": 444,
      "☎": 445,
      "☘": 446,
      "☺": 447,
      "♀": 448,
      "♂": 449,
      "♠": 450,
      "♥": 451,
      "♦": 452,
      "⚪": 453,
      "⚽": 454,
      "✆": 455,
      "✊": 456,
      "✔": 457,
      "✭": 458,
      "❄": 459,
      "❖": 460,
      "❤": 461,
      "⟨": 462,
      "⟩": 463,
      "⠀": 464,
      "⬛": 465,
      "【": 466,
      "】": 467,
      "ガ": 468,
      "ツ": 469,
      "ネ": 470,
      "メ": 471,
      "三": 472,
      "个": 473,
      "了": 474,
      "代": 475,
      "你": 476,
      "关": 477,
      "剩": 478,
      "和": 479,
      "啪": 480,
      "喜": 481,
      "女": 482,
      "尾": 483,
      "师": 484,
      "广": 485,
      "度": 486,
      "彼": 487,
      "我": 488,
      "推": 489,
      "教": 490,
      "欢": 491,
      "止": 492,
      "河": 493,
      "爱": 494,
      "爷": 495,
      "用": 496,
      "男": 497,
      "百": 498,
      "着": 499,
      "短": 500,
      "禁": 501,
      "胖": 502,
      "蟹": 503,
      "表": 504,
      "被": 505,
      "词": 506,
      "谐": 507,
      "迎": 508,
      "金": 509,
      "键": 510,
      "长": 511,
      "": 512,
      "": 513,
      "": 514,
      "": 515,
      "": 516,
      "": 517,
      "️": 518,
      "﻿": 519,
      "￡": 520,
      "￼": 521,
      "�": 522,
      "🌟": 523,
      "💀": 524,
      "💙": 525,
      "🔥": 526,
      "😉": 527,
      "😍": 528,
      "🤷": 529,
      "🧙": 530,
      "ст": 531,
      "ен": 532,
      "ра": 533,
      "то": 534,
      "но": 535,
      "на": 536,
      "ко": 537,
      "ро": 538,
      "по": 539,
      "ре": 540,
      "го": 541,
      "ли": 542,
      "ни": 543,
      "не": 544,
      "ва": 545,
      "во": 546,
      "ет": 547,
      "ри": 548,
      "ка": 549,
      "ль": 550,
      "ла": 551,
      "ны": 552,
      "за": 553,
      "да": 554,
      "те": 555,
      "ло": 556,
      "та": 557,
      "ер": 558,
      "ть": 559,
      "ки": 560,
      "ени": 561,
      "ле": 562,
      "до": 563,
      "со": 564,
      "ви": 565,
      "ми": 566,
      "ти": 567,
      "мо": 568,
      "де": 569,
      "про": 570,
      "ся": 571,
      "ци": 572,
      "си": 573,
      "ди": 574,
      "ма": 575,
      "бо": 576,
      "ру": 577,
      "вы": 578,
      "что": 579,
      "че": 580,
      "ста": 581,
      "об": 582,
      "се": 583,
      "ве": 584,
      "от": 585,
      "ме": 586,
      "ско": 587,
      "бы": 588,
      "пре": 589,
      "ча": 590,
      "при": 591,
      "ля": 592,
      "па": 593,
      "из": 594,
      "чи": 595,
      "же": 596,
      "са": 597,
      "сти": 598,
      "сто": 599,
      "ду": 600,
      "ры": 601,
      "ски": 602,
      "пе": 603,
      "хо": 604,
      "му": 605,
      "ку": 606,
      "сь": 607,
      "это": 608,
      "ну": 609,
      "ения": 610,
      "ос": 611,
      "га": 612,
      "мен": 613,
      "ной": 614,
      "ши": 615,
      "ных": 616,
      "тель": 617,
      "лу": 618,
      "раз": 619,
      "ги": 620,
      "ют": 621,
      "кото": 622,
      "ение": 623,
      "су": 624,
      "он": 625,
      "жи": 626,
      "пи": 627,
      "ного": 628,
      "щи": 629,
      "ей": 630,
      "ту": 631,
      "ты": 632,
      "бе": 633,
      "зи": 634,
      "ные": 635,
      "сле": 636,
      "ин": 637,
      "сть": 638,
      "ще": 639,
      "мы": 640,
      "бу": 641,
      "ше": 642,
      "вер": 643,
      "ств": 644,
      "ска": 645,
      "ции": 646,
      "под": 647,
      "стра": 648,
      "пра": 649,
      "би": 650,
      "ный": 651,
      "ден": 652,
      "лю": 653,
      "ня": 654,
      "все": 655,
      "ба": 656,
      "жа": 657,
      "По": 658,
      "ря": 659,
      "ор": 660,
      "пу": 661,
      "гра": 662,
      "ак": 663,
      "кра": 664,
      "кон": 665,
      "ется": 666,
      "ров": 667,
      "которы": 668,
      "сво": 669,
      "дет": 670,
      "ство": 671,
      "це": 672,
      "пред": 673,
      "пер": 674,
      "спо": 675,
      "ком": 676,
      "как": 677,
      "фи": 678,
      "вать": 679,
      "так": 680,
      "лен": 681,
      "20": 682,
      "его": 683,
      "ния": 684,
      "ем": 685,
      "мож": 686,
      "Рос": 687,
      "ным": 688,
      "пере": 689,
      "зо": 690,
      "гла": 691,
      "ке": 692,
      "ков": 693,
      "нов": 694,
      "»,": 695,
      "гово": 696,
      "Росси": 697,
      "рас": 698,
      "ской": 699,
      "сси": 700,
      "зна": 701,
      "она": 702,
      "лет": 703,
      "том": 704,
      "для": 705,
      "ды": 706,
      "ского": 707,
      "сло": 708,
      "тов": 709,
      "воз": 710,
      "ствен": 711,
      "зы": 712,
      "На": 713,
      "ства": 714,
      "дол": 715,
      "ние": 716,
      "рова": 717,
      "ша": 718,
      "ном": 719,
      "гу": 720,
      "ности": 721,
      "лся": 722,
      "года": 723,
      "вет": 724,
      "од": 725,
      "ар": 726,
      "вре": 727,
      "после": 728,
      "сту": 729,
      "лько": 730,
      "тся": 731,
      "ное": 732,
      "дер": 733,
      "ться": 734,
      "гда": 735,
      "».": 736,
      "чен": 737,
      "тра": 738,
      "нии": 739,
      "слу": 740,
      "аль": 741,
      "ща": 742,
      "рабо": 743,
      "ских": 744,
      "тив": 745,
      "их": 746,
      "мя": 747,
      "ная": 748,
      "вля": 749,
      "вой": 750,
      "лись": 751,
      "ский": 752,
      "жен": 753,
      "мер": 754,
      "зая": 755,
      "боль": 756,
      "лей": 757,
      "тер": 758,
      "тре": 759,
      "ность": 760,
      "ении": 761,
      "каза": 762,
      "ходи": 763,
      "ву": 764,
      "ис": 765,
      "вто": 766,
      "дру": 767,
      "\",": 768,
      "ан": 769,
      "России": 770,
      "ция": 771,
      "росси": 772,
      "стви": 773,
      "дей": 774,
      "сли": 775,
      "пла": 776,
      "цен": 777,
      "сте": 778,
      "кто": 779,
      "поли": 780,
      "кой": 781,
      "Но": 782,
      "спе": 783,
      "201": 784,
      "ром": 785,
      "ца": 786,
      "сказа": 787,
      "зиден": 788,
      "ющи": 789,
      "чем": 790,
      "ев": 791,
      "лось": 792,
      "жда": 793,
      "бли": 794,
      "нима": 795,
      "дела": 796,
      "фор": 797,
      "ную": 798,
      "ран": 799,
      "пы": 800,
      "лы": 801,
      "три": 802,
      "вил": 803,
      "мет": 804,
      "ские": 805,
      "уже": 806,
      "вши": 807,
      "зу": 808,
      "будет": 809,
      "ят": 810,
      "чет": 811,
      "сооб": 812,
      "пар": 813,
      "которые": 814,
      "ха": 815,
      "сы": 816,
      "или": 817,
      "также": 818,
      "стро": 819,
      "говори": 820,
      "полу": 821,
      "боле": 822,
      "пол": 823,
      "россий": 824,
      "было": 825,
      "ред": 826,
      "президен": 827,
      "ника": 828,
      "стоя": 829,
      "нача": 830,
      "был": 831,
      "вл": 832,
      "ге": 833,
      "кан": 834,
      "Ко": 835,
      "зыва": 836,
      "ее": 837,
      "лась": 838,
      "стави": 839,
      "того": 840,
      "они": 841,
      "году": 842,
      "стре": 843,
      "лек": 844,
      "ек": 845,
      "вя": 846,
      "тиче": 847,
      "Укра": 848,
      "этом": 849,
      "ник": 850,
      "лове": 851,
      "время": 852,
      "\".": 853,
      "дин": 854,
      "ются": 855,
      "может": 856,
      "ней": 857,
      "род": 858,
      "дова": 859,
      "нее": 860,
      "ению": 861,
      "рии": 862,
      "им": 863,
      "соб": 864,
      "чита": 865,
      "смо": 866,
      "прави": 867,
      "Украи": 868,
      "эк": 869,
      "ству": 870,
      "челове": 871,
      "цию": 872,
      "мини": 873,
      "чно": 874,
      "еще": 875,
      "только": 876,
      "ений": 877,
      "дар": 878,
      "Ка": 879,
      "дан": 880,
      "чтобы": 881,
      "ний": 882,
      "ман": 883,
      "За": 884,
      "кры": 885,
      "руп": 886,
      "Со": 887,
      "ША": 888,
      "США": 889,
      "ными": 890,
      "объ": 891,
      "Ма": 892,
      "само": 893,
      "рен": 894,
      "вал": 895,
      "ут": 896,
      "клю": 897,
      "жду": 898,
      "вед": 899,
      "слова": 900,
      "оста": 901,
      "нако": 902,
      "вла": 903,
      "тя": 904,
      "когда": 905,
      "уча": 906,
      "были": 907,
      "кре": 908,
      "ход": 909,
      "нет": 910,
      "води": 911,
      "шен": 912,
      "тру": 913,
      "которо": 914,
      "более": 915,
      "тем": 916,
      "который": 917,
      "можно": 918,
      "нд": 919,
      "ников": 920,
      "вали": 921,
      "вые": 922,
      "сторо": 923,
      "счита": 924,
      "цы": 925,
      "дом": 926,
      "циаль": 927,
      "вых": 928,
      "телей": 929,
      "Это": 930,
      "ью": 931,
      "эти": 932,
      "них": 933,
      "ур": 934,
      "сов": 935,
      "отно": 936,
      "орга": 937,
      "Во": 938,
      "шение": 939,
      "ская": 940,
      "коно": 941,
      "тели": 942,
      "тельно": 943,
      "ответ": 944,
      "бор": 945,
      "Не": 946,
      "чу": 947,
      "долж": 948,
      "компа": 949,
      "мери": 950,
      "буду": 951,
      "шения": 952,
      "стран": 953,
      "Мос": 954,
      "сказал": 955,
      "фе": 956,
      "ники": 957,
      "работа": 958,
      "год": 959,
      "ез": 960,
      "свя": 961,
      "став": 962,
      "ском": 963,
      "мл": 964,
      "При": 965,
      "голо": 966,
      "тро": 967,
      "19": 968,
      "ил": 969,
      "этого": 970,
      "теля": 971,
      "вод": 972,
      "рам": 973,
      "пас": 974,
      "Ев": 975,
      "сс": 976,
      "ген": 977,
      "вый": 978,
      "произ": 979,
      "сни": 980,
      "есть": 981,
      "сла": 982,
      "заявил": 983,
      "писа": 984,
      "авто": 985,
      "нова": 986,
      "Моск": 987,
      "дов": 988,
      "Ра": 989,
      "тин": 990,
      "00": 991,
      "следова": 992,
      "льно": 993,
      "кла": 994,
      "него": 995,
      "чень": 996,
      "ких": 997,
      "послед": 998,
      "Са": 999,
      "сен": 1000,
      "час": 1001,
      "вопро": 1002,
      "спор": 1003,
      "мь": 1004,
      "жд": 1005,
      "цион": 1006,
      "пло": 1007,
      "нали": 1008,
      "ления": 1009,
      "если": 1010,
      "обще": 1011,
      "фо": 1012,
      "зда": 1013,
      "словам": 1014,
      "рез": 1015,
      "держа": 1016,
      "обо": 1017,
      "Ки": 1018,
      "сей": 1019,
      "шо": 1020,
      "между": 1021,
      "публи": 1022,
      "хи": 1023,
      "испо": 1024,
      "сколько": 1025,
      "други": 1026,
      "форма": 1027,
      "пор": 1028,
      "действи": 1029,
      "вз": 1030,
      "стве": 1031,
      "мени": 1032,
      "ступ": 1033,
      "мерикан": 1034,
      "теле": 1035,
      "госу": 1036,
      "ета": 1037,
      "уда": 1038,
      "очень": 1039,
      "помо": 1040,
      "экс": 1041,
      "ональ": 1042,
      "получи": 1043,
      "Та": 1044,
      "исто": 1045,
      "государ": 1046,
      "была": 1047,
      "нк": 1048,
      "тия": 1049,
      "сты": 1050,
      "тех": 1051,
      "кого": 1052,
      "обе": 1053,
      "явля": 1054,
      "меня": 1055,
      "труд": 1056,
      "Од": 1057,
      "случа": 1058,
      "ян": 1059,
      "там": 1060,
      "ск": 1061,
      "Как": 1062,
      "Бо": 1063,
      "коло": 1064,
      "против": 1065,
      "много": 1066,
      "Пу": 1067,
      "Га": 1068,
      "воен": 1069,
      "сер": 1070,
      "шло": 1071,
      "Он": 1072,
      "без": 1073,
      "льта": 1074,
      "вого": 1075,
      "вра": 1076,
      "даже": 1077,
      "органи": 1078,
      "Евро": 1079,
      "Алек": 1080,
      "поло": 1081,
      "где": 1082,
      "тор": 1083,
      "вно": 1084,
      "вест": 1085,
      "ску": 1086,
      "мента": 1087,
      "быть": 1088,
      "бра": 1089,
      "кие": 1090,
      "жно": 1091,
      "ским": 1092,
      "ниче": 1093,
      "обра": 1094,
      "вает": 1095,
      "американ": 1096,
      "человек": 1097,
      "цев": 1098,
      "рь": 1099,
      "Вла": 1100,
      "..": 1101,
      "укра": 1102,
      "чь": 1103,
      "гро": 1104,
      "над": 1105,
      "ван": 1106,
      "жение": 1107,
      "рита": 1108,
      "жения": 1109,
      "ок": 1110,
      "ровать": 1111,
      "али": 1112,
      "бле": 1113,
      "представи": 1114,
      "чер": 1115,
      "реги": 1116,
      "туа": 1117,
      "шь": 1118,
      "пока": 1119,
      "пози": 1120,
      "ад": 1121,
      "гут": 1122,
      "день": 1123,
      "рак": 1124,
      "цу": 1125,
      "согла": 1126,
      "обла": 1127,
      "ним": 1128,
      "прав": 1129,
      "подо": 1130,
      "мент": 1131,
      "образ": 1132,
      "логи": 1133,
      "зульта": 1134,
      "кри": 1135,
      "ях": 1136,
      "льзо": 1137,
      "груп": 1138,
      "шей": 1139,
      "коман": 1140,
      "жиз": 1141,
      "Мо": 1142,
      "ций": 1143,
      "бя": 1144,
      "будут": 1145,
      "кономи": 1146,
      "сообщи": 1147,
      "руб": 1148,
      "чение": 1149,
      "дь": 1150,
      "Мы": 1151,
      "шего": 1152,
      "вания": 1153,
      "мир": 1154,
      "име": 1155,
      "встре": 1156,
      "кор": 1157,
      "рес": 1158,
      "бря": 1159,
      "приня": 1160,
      "объя": 1161,
      "грани": 1162,
      "дел": 1163,
      "украин": 1164,
      "страны": 1165,
      "Да": 1166,
      "рей": 1167,
      "результа": 1168,
      "бира": 1169,
      "Украины": 1170,
      "нару": 1171,
      "стов": 1172,
      "правитель": 1173,
      "экономи": 1174,
      "лага": 1175,
      "право": 1176,
      "тен": 1177,
      "ках": 1178,
      "сред": 1179,
      "возмож": 1180,
      "Ва": 1181,
      "вели": 1182,
      "больше": 1183,
      "президент": 1184,
      "менно": 1185,
      "щен": 1186,
      "два": 1187,
      "проек": 1188,
      "рая": 1189,
      "Ме": 1190,
      "дви": 1191,
      "поя": 1192,
      "защи": 1193,
      "Си": 1194,
      "сет": 1195,
      "То": 1196,
      "сдела": 1197,
      "оне": 1198,
      "тому": 1199,
      "Ни": 1200,
      ").": 1201,
      "пример": 1202,
      "Бе": 1203,
      "нем": 1204,
      "Ба": 1205,
      "вести": 1206,
      "пера": 1207,
      "горо": 1208,
      "дель": 1209,
      "фина": 1210,
      "призна": 1211,
      "нас": 1212,
      "мн": 1213,
      "мар": 1214,
      "Однако": 1215,
      "Влади": 1216,
      "поз": 1217,
      "ситуа": 1218,
      "),": 1219,
      "говорит": 1220,
      "дели": 1221,
      "игра": 1222,
      "зе": 1223,
      "точ": 1224,
      "ему": 1225,
      "извест": 1226,
      "част": 1227,
      "Па": 1228,
      "сотруд": 1229,
      "шин": 1230,
      "обви": 1231,
      "ставля": 1232,
      "один": 1233,
      "народ": 1234,
      "мест": 1235,
      "гражда": 1236,
      "коми": 1237,
      "несколько": 1238,
      "чения": 1239,
      "ом": 1240,
      "мат": 1241,
      "этому": 1242,
      "Так": 1243,
      "всего": 1244,
      "ит": 1245,
      "которых": 1246,
      "информа": 1247,
      "ноги": 1248,
      "сейчас": 1249,
      "рий": 1250,
      "спи": 1251,
      "200": 1252,
      "инте": 1253,
      "ору": 1254,
      "вым": 1255,
      "лли": 1256,
      "дера": 1257,
      "лич": 1258,
      "президента": 1259,
      "отмет": 1260,
      "вший": 1261,
      "выбо": 1262,
      "глав": 1263,
      "ряд": 1264,
      "er": 1265,
      "оче": 1266,
      "этот": 1267,
      "служ": 1268,
      "вления": 1269,
      "ление": 1270,
      "каж": 1271,
      "пробле": 1272,
      "гли": 1273,
      "тери": 1274,
      "побе": 1275,
      "меча": 1276,
      "Про": 1277,
      "могут": 1278,
      "Ми": 1279,
      "сков": 1280,
      "ское": 1281,
      "минист": 1282,
      "мой": 1283,
      "нию": 1284,
      "лов": 1285,
      "пыта": 1286,
      "реди": 1287,
      "10": 1288,
      "лия": 1289,
      "офи": 1290,
      "вление": 1291,
      "бой": 1292,
      "руко": 1293,
      "хра": 1294,
      "тыся": 1295,
      "которая": 1296,
      "рой": 1297,
      "организа": 1298,
      "Ве": 1299,
      "рд": 1300,
      "созда": 1301,
      "лом": 1302,
      "себя": 1303,
      "рия": 1304,
      "нам": 1305,
      "этой": 1306,
      "сам": 1307,
      "дву": 1308,
      "рован": 1309,
      "мира": 1310,
      "власти": 1311,
      "ссо": 1312,
      "ющих": 1313,
      "нови": 1314,
      "ших": 1315,
      "вая": 1316,
      "пад": 1317,
      "Сер": 1318,
      "экспер": 1319,
      "фа": 1320,
      "ете": 1321,
      "сно": 1322,
      "доро": 1323,
      "продол": 1324,
      "просто": 1325,
      "кар": 1326,
      "компании": 1327,
      "тии": 1328,
      "ую": 1329,
      "Пос": 1330,
      "кам": 1331,
      "полити": 1332,
      "шли": 1333,
      "рито": 1334,
      "млн": 1335,
      "стан": 1336,
      "щей": 1337,
      "политиче": 1338,
      "шел": 1339,
      "грам": 1340,
      "пя": 1341,
      "Если": 1342,
      "вид": 1343,
      "наз": 1344,
      "прошло": 1345,
      "Ре": 1346,
      "нен": 1347,
      "емы": 1348,
      "луч": 1349,
      "фак": 1350,
      "оказа": 1351,
      "рав": 1352,
      "Все": 1353,
      "всех": 1354,
      "скую": 1355,
      "ким": 1356,
      "нут": 1357,
      "вают": 1358,
      "бро": 1359,
      "вое": 1360,
      "людей": 1361,
      "месте": 1362,
      "самы": 1363,
      "Ро": 1364,
      "юще": 1365,
      "свою": 1366,
      "министра": 1367,
      "Се": 1368,
      "тур": 1369,
      "показа": 1370,
      "необ": 1371,
      "После": 1372,
      "Ви": 1373,
      "жур": 1374,
      "вос": 1375,
      "Трам": 1376,
      "вне": 1377,
      "состоя": 1378,
      "бан": 1379,
      "вом": 1380,
      "Ин": 1381,
      "До": 1382,
      "Ан": 1383,
      "поддер": 1384,
      "решение": 1385,
      "ера": 1386,
      "МИ": 1387,
      "террито": 1388,
      "Алекса": 1389,
      "Россия": 1390,
      "роме": 1391,
      "совет": 1392,
      "рай": 1393,
      "тр": 1394,
      "интер": 1395,
      "ваться": 1396,
      "закон": 1397,
      "хот": 1398,
      "тай": 1399,
      "меся": 1400,
      "стал": 1401,
      "брита": 1402,
      "станов": 1403,
      "систе": 1404,
      "место": 1405,
      "ию": 1406,
      "сня": 1407,
      "седа": 1408,
      "хоро": 1409,
      "стать": 1410,
      "уби": 1411,
      "суд": 1412,
      "гру": 1413,
      "бер": 1414,
      "зопас": 1415,
      "нь": 1416,
      "ющий": 1417,
      "является": 1418,
      "реши": 1419,
      "разви": 1420,
      "дж": 1421,
      "свои": 1422,
      "вар": 1423,
      "ному": 1424,
      "находи": 1425,
      "кол": 1426,
      "ступа": 1427,
      "сколь": 1428,
      "един": 1429,
      "коро": 1430,
      "ов": 1431,
      "ступи": 1432,
      "своей": 1433,
      "щения": 1434,
      "Ку": 1435,
      "ками": 1436,
      "Александ": 1437,
      "лан": 1438,
      "сообща": 1439,
      "Би": 1440,
      "шта": 1441,
      "стей": 1442,
      "пута": 1443,
      "дума": 1444,
      "кова": 1445,
      "мина": 1446,
      "стя": 1447,
      "через": 1448,
      "той": 1449,
      "Ли": 1450,
      "поч": 1451,
      "рус": 1452,
      "жден": 1453,
      "15": 1454,
      "времен": 1455,
      "доба": 1456,
      "откры": 1457,
      "заяви": 1458,
      "сро": 1459,
      "филь": 1460,
      "рублей": 1461,
      "следу": 1462,
      "безопас": 1463,
      "ностью": 1464,
      "стороны": 1465,
      "пен": 1466,
      "ктор": 1467,
      "ющие": 1468,
      "нес": 1469,
      "рует": 1470,
      "необходи": 1471,
      "нер": 1472,
      "евро": 1473,
      "чемпи": 1474,
      "друго": 1475,
      "сом": 1476,
      "вших": 1477,
      "Об": 1478,
      "опера": 1479,
      "вание": 1480,
      "зя": 1481,
      "участ": 1482,
      "высо": 1483,
      "эта": 1484,
      "переда": 1485,
      "стру": 1486,
      "оп": 1487,
      "пара": 1488,
      "конф": 1489,
      "циональ": 1490,
      "Де": 1491,
      "доста": 1492,
      "програм": 1493,
      "Те": 1494,
      "многи": 1495,
      "Из": 1496,
      "уров": 1497,
      "принима": 1498,
      "лик": 1499,
      "отмеча": 1500,
      "Ар": 1501,
      "около": 1502,
      "совер": 1503,
      "тран": 1504,
      "моби": 1505,
      "цией": 1506,
      "Газ": 1507,
      "отнош": 1508,
      "произо": 1509,
      "усло": 1510,
      "льного": 1511,
      "дело": 1512,
      "рах": 1513,
      "деле": 1514,
      "готов": 1515,
      "треть": 1516,
      "вари": 1517,
      "граждан": 1518,
      "йти": 1519,
      "тки": 1520,
      "ством": 1521,
      "кое": 1522,
      "лишь": 1523,
      "данным": 1524,
      "дома": 1525,
      "демо": 1526,
      "семь": 1527,
      "утвер": 1528,
      "тно": 1529,
      "заклю": 1530,
      "должны": 1531,
      "кну": 1532,
      "разу": 1533,
      "очеред": 1534,
      "считает": 1535,
      "доку": 1536,
      "тить": 1537,
      "две": 1538,
      "перед": 1539,
      "предло": 1540,
      "официаль": 1541,
      "пей": 1542,
      "режи": 1543,
      "тысяч": 1544,
      "ходя": 1545,
      "женщи": 1546,
      "верси": 1547,
      "перь": 1548,
      "вала": 1549,
      "Дж": 1550,
      "щение": 1551,
      "гото": 1552,
      "ино": 1553,
      "проце": 1554,
      "тий": 1555,
      "нитель": 1556,
      "вот": 1557,
      "строи": 1558,
      "люди": 1559,
      "Пре": 1560,
      "дея": 1561,
      "обя": 1562,
      "финан": 1563,
      "значи": 1564,
      "гре": 1565,
      "премь": 1566,
      "Пет": 1567,
      "льный": 1568,
      "нием": 1569,
      "однако": 1570,
      "on": 1571,
      "РФ": 1572,
      "занима": 1573,
      "потре": 1574,
      "которой": 1575,
      "Го": 1576,
      "кру": 1577,
      "участи": 1578,
      "ходит": 1579,
      "двух": 1580,
      "Лу": 1581,
      "млрд": 1582,
      "своих": 1583,
      "именно": 1584,
      "часть": 1585,
      "случае": 1586,
      "Ру": 1587,
      "30": 1588,
      "ссе": 1589,
      "ху": 1590,
      "an": 1591,
      "дра": 1592,
      "Вы": 1593,
      "позво": 1594,
      "ья": 1595,
      "пря": 1596,
      "бю": 1597,
      "других": 1598,
      "ожи": 1599,
      "нения": 1600,
      "даль": 1601,
      "ждения": 1602,
      "зывает": 1603,
      "виде": 1604,
      "моло": 1605,
      "in": 1606,
      "области": 1607,
      "ново": 1608,
      "оборо": 1609,
      "всем": 1610,
      "одно": 1611,
      "Су": 1612,
      "тон": 1613,
      "ито": 1614,
      "ал": 1615,
      "пусти": 1616,
      "суще": 1617,
      "зави": 1618,
      "чина": 1619,
      "Кроме": 1620,
      "хва": 1621,
      "бре": 1622,
      "еди": 1623,
      "бла": 1624,
      "мне": 1625,
      "Что": 1626,
      "журнали": 1627,
      "ческой": 1628,
      "сса": 1629,
      "шая": 1630,
      "опре": 1631,
      "запре": 1632,
      "использо": 1633,
      "продолжа": 1634,
      "ева": 1635,
      "дня": 1636,
      "вопрос": 1637,
      "член": 1638,
      "вле": 1639,
      "спорт": 1640,
      "лег": 1641,
      "муж": 1642,
      "льной": 1643,
      "газ": 1644,
      "мости": 1645,
      "еха": 1646,
      "счет": 1647,
      "пода": 1648,
      "Пе": 1649,
      "кая": 1650,
      "кий": 1651,
      "сил": 1652,
      "тельства": 1653,
      "мень": 1654,
      "жизни": 1655,
      "ав": 1656,
      "смот": 1657,
      "начала": 1658,
      "упра": 1659,
      "тиво": 1660,
      "бло": 1661,
      "проис": 1662,
      "глава": 1663,
      "след": 1664,
      "Кон": 1665,
      "лин": 1666,
      "льных": 1667,
      "ган": 1668,
      "дире": 1669,
      "шла": 1670,
      "ссии": 1671,
      "кур": 1672,
      "успе": 1673,
      "контро": 1674,
      "кси": 1675,
      "шко": 1676,
      "тически": 1677,
      "числе": 1678,
      "личе": 1679,
      "подчер": 1680,
      "исследова": 1681,
      "вается": 1682,
      "сою": 1683,
      "международ": 1684,
      "ранее": 1685,
      "роди": 1686,
      "le": 1687,
      "твер": 1688,
      "зан": 1689,
      "парла": 1690,
      "способ": 1691,
      "сут": 1692,
      "тогда": 1693,
      "гов": 1694,
      "...": 1695,
      "человека": 1696,
      "услови": 1697,
      "каче": 1698,
      "прия": 1699,
      "депута": 1700,
      "ческих": 1701,
      "йте": 1702,
      "12": 1703,
      "полага": 1704,
      "безопасности": 1705,
      "учи": 1706,
      "неф": 1707,
      "гля": 1708,
      "матери": 1709,
      "потому": 1710,
      "верну": 1711,
      "бое": 1712,
      "пада": 1713,
      "дово": 1714,
      "ститу": 1715,
      "которого": 1716,
      "зако": 1717,
      "момент": 1718,
      "От": 1719,
      "ходе": 1720,
      "Владимир": 1721,
      "мая": 1722,
      "осу": 1723,
      "зад": 1724,
      "обы": 1725,
      "санк": 1726,
      "верен": 1727,
      "прода": 1728,
      "фон": 1729,
      "собствен": 1730,
      "ави": 1731,
      "надо": 1732,
      "шенко": 1733,
      "точно": 1734,
      "помощ": 1735,
      "вен": 1736,
      "мнению": 1737,
      "чего": 1738,
      "ат": 1739,
      "пресс": 1740,
      "Они": 1741,
      "Че": 1742,
      "биз": 1743,
      "деся": 1744,
      "Ле": 1745,
      "кана": 1746,
      "тина": 1747,
      "поня": 1748,
      "вшего": 1749,
      "большо": 1750,
      "вока": 1751,
      "щих": 1752,
      "милли": 1753,
      "СС": 1754,
      "ям": 1755,
      "меди": 1756,
      "законо": 1757,
      "основ": 1758,
      "Ru": 1759,
      "фут": 1760,
      "ье": 1761,
      "стало": 1762,
      "фото": 1763,
      "почти": 1764,
      "должен": 1765,
      "поги": 1766,
      "шие": 1767,
      "задержа": 1768,
      "пом": 1769,
      "Анд": 1770,
      "четвер": 1771,
      "соответ": 1772,
      "российских": 1773,
      "es": 1774,
      "бур": 1775,
      "гей": 1776,
      "нах": 1777,
      "рую": 1778,
      "голов": 1779,
      "веро": 1780,
      "тета": 1781,
      "нами": 1782,
      "мов": 1783,
      "жить": 1784,
      "скими": 1785,
      "называ": 1786,
      "четы": 1787,
      "Кры": 1788,
      "скому": 1789,
      "нужно": 1790,
      "сообщил": 1791,
      "круп": 1792,
      "проте": 1793,
      "стри": 1794,
      "зависи": 1795,
      "тыс": 1796,
      "Путин": 1797,
      "стране": 1798,
      "тября": 1799,
      "плани": 1800,
      "фф": 1801,
      "работ": 1802,
      "уни": 1803,
      "сили": 1804,
      "чной": 1805,
      "Фе": 1806,
      "связи": 1807,
      "стоит": 1808,
      "Пер": 1809,
      "города": 1810,
      "вез": 1811,
      "50": 1812,
      "свобо": 1813,
      "тоже": 1814,
      "интере": 1815,
      "отметил": 1816,
      "Москве": 1817,
      "преступ": 1818,
      "графи": 1819,
      "ске": 1820,
      "кли": 1821,
      "написа": 1822,
      "стали": 1823,
      "ствия": 1824,
      "имо": 1825,
      "спа": 1826,
      "испол": 1827,
      "коне": 1828,
      "видет": 1829,
      "Мар": 1830,
      "дут": 1831,
      "Фран": 1832,
      "город": 1833,
      "Дми": 1834,
      "струк": 1835,
      "десь": 1836,
      "лета": 1837,
      "ьез": 1838,
      "ток": 1839,
      "такой": 1840,
      "аген": 1841,
      "or": 1842,
      "блю": 1843,
      "внима": 1844,
      "льные": 1845,
      "ствует": 1846,
      "утвержда": 1847,
      "СМИ": 1848,
      "чены": 1849,
      "смер": 1850,
      "ляр": 1851,
      "возможно": 1852,
      "назад": 1853,
      "онов": 1854,
      "количе": 1855,
      "ЕС": 1856,
      "противо": 1857,
      "дить": 1858,
      "рын": 1859,
      "кти": 1860,
      "государствен": 1861,
      "получа": 1862,
      "ший": 1863,
      "тот": 1864,
      "хов": 1865,
      "Дмитри": 1866,
      "серьез": 1867,
      "туры": 1868,
      "бен": 1869,
      "говоря": 1870,
      "лены": 1871,
      "лон": 1872,
      "себе": 1873,
      "нор": 1874,
      "мии": 1875,
      "подтвер": 1876,
      "тами": 1877,
      "ческого": 1878,
      "щая": 1879,
      "иг": 1880,
      "автомоби": 1881,
      "дой": 1882,
      "ведения": 1883,
      "собы": 1884,
      "цей": 1885,
      "своего": 1886,
      "льзу": 1887,
      "рию": 1888,
      "шу": 1889,
      "причи": 1890,
      "сбор": 1891,
      "годня": 1892,
      "отказа": 1893,
      "квар": 1894,
      "иностран": 1895,
      "поддерж": 1896,
      "рассказал": 1897,
      "этих": 1898,
      "al": 1899,
      "проку": 1900,
      "ровал": 1901,
      "преду": 1902,
      "сегодня": 1903,
      "Москвы": 1904,
      "чему": 1905,
      "сами": 1906,
      "цер": 1907,
      "дии": 1908,
      "премьер": 1909,
      "клу": 1910,
      "комп": 1911,
      "прове": 1912,
      "ственно": 1913,
      "дать": 1914,
      "Мин": 1915,
      "циа": 1916,
      "дости": 1917,
      "британ": 1918,
      "Гла": 1919,
      "тали": 1920,
      "вшие": 1921,
      "пери": 1922,
      "менее": 1923,
      "ведом": 1924,
      "социаль": 1925,
      "прекра": 1926,
      "тие": 1927,
      "миро": 1928,
      "долла": 1929,
      "актив": 1930,
      "циали": 1931,
      "ar": 1932,
      "хода": 1933,
      "партии": 1934,
      "вую": 1935,
      "кин": 1936,
      "действия": 1937,
      "кро": 1938,
      "ограни": 1939,
      "которое": 1940,
      "четыре": 1941,
      "хотя": 1942,
      "Гер": 1943,
      "части": 1944,
      "Бу": 1945,
      "одной": 1946,
      "ню": 1947,
      "жела": 1948,
      "ением": 1949,
      "насе": 1950,
      "уч": 1951,
      "чей": 1952,
      "работы": 1953,
      "изда": 1954,
      "времени": 1955,
      "шет": 1956,
      "ули": 1957,
      "министр": 1958,
      "вич": 1959,
      "Александр": 1960,
      "появи": 1961,
      "сол": 1962,
      "18": 1963,
      "ог": 1964,
      "понима": 1965,
      "конце": 1966,
      "Украине": 1967,
      "станови": 1968,
      "жил": 1969,
      "чемпиона": 1970,
      "всегда": 1971,
      "угро": 1972,
      "влия": 1973,
      "отношения": 1974,
      "обсу": 1975,
      "администра": 1976,
      "вс": 1977,
      "ствие": 1978,
      "en": 1979,
      "стер": 1980,
      "нить": 1981,
      "смотря": 1982,
      "кс": 1983,
      "перегово": 1984,
      "ничего": 1985,
      "it": 1986,
      "ради": 1987,
      "стар": 1988,
      "oo": 1989,
      "строй": 1990,
      "руководи": 1991,
      "щий": 1992,
      "шим": 1993,
      "авиа": 1994,
      "лим": 1995,
      "убий": 1996,
      "результате": 1997,
      "территории": 1998,
      "расска": 1999,
      "сма": 2000,
      "куль": 2001,
      "фер": 2002,
      "чить": 2003,
      "мом": 2004,
      "конфлик": 2005,
      "настоя": 2006,
      "тора": 2007,
      "рин": 2008,
      "давно": 2009,
      "пора": 2010,
      "нил": 2011,
      "подоб": 2012,
      "наде": 2013,
      "Мак": 2014,
      "уверен": 2015,
      "регу": 2016,
      "частности": 2017,
      "увели": 2018,
      "дида": 2019,
      "защит": 2020,
      "свой": 2021,
      "ень": 2022,
      "тет": 2023,
      "Сергей": 2024,
      "Для": 2025,
      "борь": 2026,
      "енно": 2027,
      "скольку": 2028,
      "оппози": 2029,
      "секре": 2030,
      "говорится": 2031,
      "теперь": 2032,
      "Россий": 2033,
      "обеспе": 2034,
      "детей": 2035,
      "дека": 2036,
      "11": 2037,
      "либо": 2038,
      "казыва": 2039,
      "взя": 2040,
      "другие": 2041,
      "среди": 2042,
      "подчеркну": 2043,
      "государства": 2044,
      "эту": 2045,
      "бюдж": 2046,
      "опреде": 2047,
      "ровали": 2048,
      "страда": 2049,
      "зем": 2050,
      "мести": 2051,
      "исклю": 2052,
      "важ": 2053,
      "требо": 2054,
      "25": 2055,
      "вили": 2056,
      "чув": 2057,
      "руковод": 2058,
      "националь": 2059,
      "одного": 2060,
      "зада": 2061,
      "права": 2062,
      "свое": 2063,
      "ствовать": 2064,
      "распо": 2065,
      "тах": 2066,
      "анали": 2067,
      "жу": 2068,
      "скоре": 2069,
      "ктора": 2070,
      "проду": 2071,
      "образом": 2072,
      "обеща": 2073,
      "долго": 2074,
      "провер": 2075,
      "первые": 2076,
      "проводи": 2077,
      "14": 2078,
      "стати": 2079,
      "ныне": 2080,
      "лай": 2081,
      "измен": 2082,
      "охра": 2083,
      "аре": 2084,
      "тан": 2085,
      "Она": 2086,
      "источ": 2087,
      "вор": 2088,
      "кандида": 2089,
      "тура": 2090,
      "выпол": 2091,
      "ссы": 2092,
      "российского": 2093,
      "бом": 2094,
      "сторон": 2095,
      "площа": 2096,
      "зации": 2097,
      "суде": 2098,
      "москов": 2099,
      "повы": 2100,
      "стала": 2101,
      "котором": 2102,
      "выя": 2103,
      "Сей": 2104,
      "известно": 2105,
      "16": 2106,
      "сразу": 2107,
      "оружи": 2108,
      "пыт": 2109,
      "еты": 2110,
      "преж": 2111,
      "Хо": 2112,
      "идет": 2113,
      "янва": 2114,
      "предо": 2115,
      "ноя": 2116,
      "европей": 2117,
      "пят": 2118,
      "рон": 2119,
      "дит": 2120,
      "прин": 2121,
      "удалось": 2122,
      "сре": 2123,
      "смен": 2124,
      "шее": 2125,
      "17": 2126,
      "своем": 2127,
      "республи": 2128,
      "ницу": 2129,
      "анти": 2130,
      "мере": 2131,
      "центра": 2132,
      "отношении": 2133,
      "расследова": 2134,
      "рем": 2135,
      "гло": 2136,
      "тера": 2137,
      "Мих": 2138,
      "вклю": 2139,
      "чинов": 2140,
      "Герма": 2141,
      "потом": 2142,
      "пять": 2143,
      "вместе": 2144,
      "апре": 2145,
      "иль": 2146,
      "пись": 2147,
      "рев": 2148,
      "жили": 2149,
      "здесь": 2150,
      "%.": 2151,
      "тельство": 2152,
      "организации": 2153,
      "сказала": 2154,
      "обществен": 2155,
      "правительства": 2156,
      "ун": 2157,
      "попа": 2158,
      "компания": 2159,
      "чных": 2160,
      "пользо": 2161,
      "агент": 2162,
      "голосо": 2163,
      "кт": 2164,
      "этим": 2165,
      "гор": 2166,
      "Сейчас": 2167,
      "закры": 2168,
      "Когда": 2169,
      "Ди": 2170,
      "первый": 2171,
      "Гос": 2172,
      "работать": 2173,
      "втор": 2174,
      "форми": 2175,
      "уголов": 2176,
      "каз": 2177,
      "опас": 2178,
      "пуска": 2179,
      "обяза": 2180,
      "жении": 2181,
      "Ранее": 2182,
      "жды": 2183,
      "ница": 2184,
      "собира": 2185,
      "Ха": 2186,
      "например": 2187,
      "решения": 2188,
      "рост": 2189,
      "щении": 2190,
      "воору": 2191,
      "ющего": 2192,
      "восто": 2193,
      "футбо": 2194,
      "чные": 2195,
      "язы": 2196,
      "совершен": 2197,
      "вью": 2198,
      "деятель": 2199,
      "мало": 2200,
      "ожида": 2201,
      "основа": 2202,
      "Пред": 2203,
      "выз": 2204,
      "годы": 2205,
      "деньги": 2206,
      "ерт": 2207,
      "суда": 2208,
      "поку": 2209,
      "13": 2210,
      "проект": 2211,
      "сети": 2212,
      "Трамп": 2213,
      "кую": 2214,
      "таких": 2215,
      "выступа": 2216,
      "поскольку": 2217,
      "таки": 2218,
      "реаль": 2219,
      "Тур": 2220,
      "места": 2221,
      "сделать": 2222,
      "виру": 2223,
      "начале": 2224,
      "очередь": 2225,
      "последние": 2226,
      "лимпи": 2227,
      "воду": 2228,
      "составля": 2229,
      "шем": 2230,
      "Лю": 2231,
      "нице": 2232,
      "ситуации": 2233,
      "главы": 2234,
      "нало": 2235,
      "элек": 2236,
      "ющей": 2237,
      "докумен": 2238,
      "специали": 2239,
      "распро": 2240,
      "сматри": 2241,
      "говор": 2242,
      "ети": 2243,
      "уди": 2244,
      "образо": 2245,
      "ческие": 2246,
      "маши": 2247,
      "тельной": 2248,
      "доб": 2249,
      "большин": 2250,
      "которую": 2251,
      "многие": 2252,
      "игро": 2253,
      "Му": 2254,
      "Вели": 2255,
      "зов": 2256,
      "Бело": 2257,
      "поте": 2258,
      "возможность": 2259,
      "профе": 2260,
      "влении": 2261,
      "соста": 2262,
      "дней": 2263,
      "видео": 2264,
      "наблю": 2265,
      "кино": 2266,
      "подоз": 2267,
      "опубли": 2268,
      "хран": 2269,
      "лена": 2270,
      "воро": 2271,
      "такие": 2272,
      "199": 2273,
      "рави": 2274,
      "авгу": 2275,
      "информации": 2276,
      "тар": 2277,
      "мину": 2278,
      "поле": 2279,
      "намер": 2280,
      "каса": 2281,
      "ТО": 2282,
      "пишет": 2283,
      "таль": 2284,
      "зии": 2285,
      "at": 2286,
      "заня": 2287,
      "2018": 2288,
      "прочем": 2289,
      "продук": 2290,
      "находится": 2291,
      "течение": 2292,
      "лиц": 2293,
      "сокра": 2294,
      "рования": 2295,
      "ce": 2296,
      "одна": 2297,
      "дил": 2298,
      "недель": 2299,
      "трен": 2300,
      "собра": 2301,
      "вери": 2302,
      "НА": 2303,
      "жать": 2304,
      "жай": 2305,
      "100": 2306,
      "федера": 2307,
      "Миха": 2308,
      "ОО": 2309,
      "щие": 2310,
      "работу": 2311,
      "сим": 2312,
      "интервью": 2313,
      "говорят": 2314,
      "Украина": 2315,
      "куда": 2316,
      "российской": 2317,
      "попу": 2318,
      "ене": 2319,
      "Также": 2320,
      "ффек": 2321,
      "обрати": 2322,
      "завер": 2323,
      "ены": 2324,
      "цени": 2325,
      "трех": 2326,
      "обнару": 2327,
      "считают": 2328,
      "диа": 2329,
      "группы": 2330,
      "шед": 2331,
      "производ": 2332,
      "нынеш": 2333,
      "нему": 2334,
      "Сирии": 2335,
      "поэтому": 2336,
      "низ": 2337,
      "щее": 2338,
      "убе": 2339,
      "ена": 2340,
      "МВ": 2341,
      "видете": 2342,
      "держи": 2343,
      "инф": 2344,
      "лидер": 2345,
      "энер": 2346,
      "спорта": 2347,
      "сказать": 2348,
      "возра": 2349,
      "заседа": 2350,
      "СК": 2351,
      "__": 2352,
      "окру": 2353,
      "представитель": 2354,
      "имеет": 2355,
      "ила": 2356,
      "юри": 2357,
      "стоян": 2358,
      "новых": 2359,
      "ходят": 2360,
      "необходимо": 2361,
      "жизнь": 2362,
      "лова": 2363,
      "ставить": 2364,
      "терро": 2365,
      "ответствен": 2366,
      "долларов": 2367,
      "2014": 2368,
      "сцен": 2369,
      "приз": 2370,
      "другой": 2371,
      "Вер": 2372,
      "пожа": 2373,
      "емо": 2374,
      "постав": 2375,
      "евра": 2376,
      "меры": 2377,
      "шую": 2378,
      "руют": 2379,
      "эффек": 2380,
      "финансо": 2381,
      "Сан": 2382,
      "вообще": 2383,
      "достаточно": 2384,
      "второй": 2385,
      "нец": 2386,
      "кварти": 2387,
      "нуть": 2388,
      "особ": 2389,
      "сообщает": 2390,
      "подписа": 2391,
      "меша": 2392,
      "корона": 2393,
      "демон": 2394,
      "мыш": 2395,
      "февра": 2396,
      "Тем": 2397,
      "реали": 2398,
      "вел": 2399,
      "дли": 2400,
      "иде": 2401,
      "ребен": 2402,
      "тяже": 2403,
      "ником": 2404,
      "тельных": 2405,
      "участие": 2406,
      "чный": 2407,
      "мире": 2408,
      "лев": 2409,
      "ющим": 2410,
      "Нико": 2411,
      "крити": 2412,
      "дал": 2413,
      "музы": 2414,
      "шки": 2415,
      "которым": 2416,
      "Под": 2417,
      "щего": 2418,
      "специаль": 2419,
      "туре": 2420,
      "няя": 2421,
      "возду": 2422,
      "нин": 2423,
      "телям": 2424,
      "пан": 2425,
      "мин": 2426,
      "слы": 2427,
      "материа": 2428,
      "лено": 2429,
      "нологи": 2430,
      "нев": 2431,
      "объек": 2432,
      "рами": 2433,
      "Ла": 2434,
      "пенси": 2435,
      "Сле": 2436,
      "нар": 2437,
      "мей": 2438,
      "40": 2439,
      "ждение": 2440,
      "службы": 2441,
      "Трампа": 2442,
      "судь": 2443,
      "жем": 2444,
      "срав": 2445,
      "сум": 2446,
      "назна": 2447,
      "боро": 2448,
      "вин": 2449,
      "жал": 2450,
      "спро": 2451,
      "ter": 2452,
      "напра": 2453,
      "свидете": 2454,
      "менти": 2455,
      "Дмитрий": 2456,
      "отмечает": 2457,
      "внимание": 2458,
      "рения": 2459,
      "должна": 2460,
      "ленных": 2461,
      "дене": 2462,
      "террори": 2463,
      "добавил": 2464,
      "дем": 2465,
      "избира": 2466,
      "2012": 2467,
      "обвиня": 2468,
      "жей": 2469,
      "акти": 2470,
      "ини": 2471,
      "гер": 2472,
      "силь": 2473,
      "Совет": 2474,
      "сить": 2475,
      "тельные": 2476,
      "суб": 2477,
      "реа": 2478,
      "возвра": 2479,
      "парт": 2480,
      "наро": 2481,
      "председа": 2482,
      "пита": 2483,
      "отли": 2484,
      "Согла": 2485,
      "гно": 2486,
      "ницы": 2487,
      "адвока": 2488,
      "телем": 2489,
      "вобо": 2490,
      "ченко": 2491,
      "хозя": 2492,
      "чает": 2493,
      "ВВ": 2494,
      "бизнес": 2495,
      "нок": 2496,
      "относи": 2497,
      "кажды": 2498,
      "ческий": 2499,
      "ближай": 2500,
      "рева": 2501,
      "слож": 2502,
      "команды": 2503,
      "делать": 2504,
      "никами": 2505,
      "Брита": 2506,
      "кризи": 2507,
      "качестве": 2508,
      "арти": 2509,
      "представля": 2510,
      "столи": 2511,
      "снил": 2512,
      "24": 2513,
      "МК": 2514,
      "вались": 2515,
      "иму": 2516,
      "возгла": 2517,
      "находя": 2518,
      "друг": 2519,
      "проблемы": 2520,
      "игры": 2521,
      "предлага": 2522,
      "веду": 2523,
      "види": 2524,
      "плат": 2525,
      "новые": 2526,
      "постоян": 2527,
      "Федера": 2528,
      "ствии": 2529,
      "должно": 2530,
      "полно": 2531,
      "вол": 2532,
      "ситуация": 2533,
      "Россию": 2534,
      "лега": 2535,
      "спон": 2536,
      "заявила": 2537,
      "чки": 2538,
      "21": 2539,
      "he": 2540,
      "указа": 2541,
      "конечно": 2542,
      "итоге": 2543,
      "внут": 2544,
      "истории": 2545,
      "потреб": 2546,
      "говорить": 2547,
      "оцен": 2548,
      "поддержи": 2549,
      "пси": 2550,
      "количество": 2551,
      "кому": 2552,
      "люби": 2553,
      "22": 2554,
      "Между": 2555,
      "ваются": 2556,
      "какой": 2557,
      "войны": 2558,
      "замет": 2559,
      "смотреть": 2560,
      "тю": 2561,
      "сон": 2562,
      "чис": 2563,
      "Бы": 2564,
      "электро": 2565,
      "эксперт": 2566,
      "ам": 2567,
      "правительство": 2568,
      "Его": 2569,
      "установ": 2570,
      "спец": 2571,
      "парта": 2572,
      "рамках": 2573,
      "зву": 2574,
      "глу": 2575,
      "получил": 2576,
      "дили": 2577,
      "снова": 2578,
      "дент": 2579,
      "технологи": 2580,
      "говорил": 2581,
      "ить": 2582,
      "подчеркнул": 2583,
      "Президен": 2584,
      "действительно": 2585,
      "ката": 2586,
      "мор": 2587,
      "прошлом": 2588,
      "вок": 2589,
      "Ду": 2590,
      "доров": 2591,
      "оте": 2592,
      "посе": 2593,
      "измени": 2594,
      "Ну": 2595,
      "выборов": 2596,
      "обре": 2597,
      "развития": 2598,
      "това": 2599,
      "цов": 2600,
      "пользова": 2601,
      "Ново": 2602,
      "чного": 2603,
      "Путина": 2604,
      "Велико": 2605,
      "контра": 2606,
      "Цен": 2607,
      "кос": 2608,
      "печа": 2609,
      "Боль": 2610,
      "собой": 2611,
      "никто": 2612,
      "йдет": 2613,
      "отве": 2614,
      "мас": 2615,
      "системы": 2616,
      "фици": 2617,
      "мед": 2618,
      "слав": 2619,
      "погиб": 2620,
      "2016": 2621,
      "турни": 2622,
      "хорошо": 2623,
      "сона": 2624,
      "Еще": 2625,
      "допол": 2626,
      "тут": 2627,
      "новой": 2628,
      "марта": 2629,
      "никогда": 2630,
      "эро": 2631,
      "массо": 2632,
      "сообщили": 2633,
      "Великобрита": 2634,
      "дале": 2635,
      "окон": 2636,
      "емых": 2637,
      "цин": 2638,
      "визи": 2639,
      "благода": 2640,
      "хоте": 2641,
      "генера": 2642,
      "ленные": 2643,
      "пострада": 2644,
      "весь": 2645,
      "внутрен": 2646,
      "секрета": 2647,
      "демокра": 2648,
      "мигра": 2649,
      "поряд": 2650,
      "Впрочем": 2651,
      "жерт": 2652,
      "большой": 2653,
      "бере": 2654,
      "тельный": 2655,
      "стол": 2656,
      "Север": 2657,
      "спек": 2658,
      "дипло": 2659,
      "российские": 2660,
      "вода": 2661,
      "харак": 2662,
      "стой": 2663,
      "тых": 2664,
      "сопер": 2665,
      "наши": 2666,
      "привле": 2667,
      "прошлого": 2668,
      "ъя": 2669,
      "директор": 2670,
      "меро": 2671,
      "прак": 2672,
      "бов": 2673,
      "вшей": 2674,
      "лла": 2675,
      "ствуют": 2676,
      "самых": 2677,
      "ори": 2678,
      "гам": 2679,
      "2017": 2680,
      "ционе": 2681,
      "%,": 2682,
      "сило": 2683,
      "могли": 2684,
      "вам": 2685,
      "полиции": 2686,
      "вероят": 2687,
      "жной": 2688,
      "Зе": 2689,
      "сохра": 2690,
      "встреча": 2691,
      "ходить": 2692,
      "попро": 2693,
      "Россией": 2694,
      "нового": 2695,
      "имуще": 2696,
      "телями": 2697,
      "заявля": 2698,
      "мужчи": 2699,
      "данные": 2700,
      "начина": 2701,
      "Поэтому": 2702,
      "пала": 2703,
      "ro": 2704,
      "Чер": 2705,
      "своим": 2706,
      "рошенко": 2707,
      "ведь": 2708,
      "помощи": 2709,
      "законода": 2710,
      "часто": 2711,
      "читы": 2712,
      "стана": 2713,
      "самом": 2714,
      "Ком": 2715,
      "летний": 2716,
      "езд": 2717,
      "станет": 2718,
      "Европы": 2719,
      "подготов": 2720,
      "скан": 2721,
      "новый": 2722,
      "ербур": 2723,
      "шинг": 2724,
      "край": 2725,
      "чка": 2726,
      "лами": 2727,
      "чески": 2728,
      "меньше": 2729,
      "Дру": 2730,
      "января": 2731,
      "кус": 2732,
      "эн": 2733,
      "60": 2734,
      "Лон": 2735,
      "чие": 2736,
      "штра": 2737,
      "заявили": 2738,
      "тый": 2739,
      "ra": 2740,
      "бри": 2741,
      "предполага": 2742,
      "популяр": 2743,
      "какие": 2744,
      "льным": 2745,
      "нили": 2746,
      "связа": 2747,
      "ведение": 2748,
      "2011": 2749,
      "Ста": 2750,
      "спу": 2751,
      "сед": 2752,
      "джа": 2753,
      "вался": 2754,
      "дно": 2755,
      "оцени": 2756,
      "пост": 2757,
      "почему": 2758,
      "минут": 2759,
      "деву": 2760,
      "полицей": 2761,
      "фу": 2762,
      "догово": 2763,
      "выра": 2764,
      "Порошенко": 2765,
      "Кар": 2766,
      "полностью": 2767,
      "шка": 2768,
      "позволи": 2769,
      "комплек": 2770,
      "хе": 2771,
      "выми": 2772,
      "мог": 2773,
      "Май": 2774,
      "реша": 2775,
      "фран": 2776,
      "нашей": 2777,
      "тая": 2778,
      "никам": 2779,
      "тол": 2780,
      "городе": 2781,
      "лучше": 2782,
      "рыв": 2783,
      "сентября": 2784,
      "льзя": 2785,
      "Ген": 2786,
      "внеш": 2787,
      "торов": 2788,
      "шении": 2789,
      "зер": 2790,
      "зам": 2791,
      "пли": 2792,
      "чая": 2793,
      "23": 2794,
      "торы": 2795,
      "пов": 2796,
      "Вашинг": 2797,
      "декабря": 2798,
      "несколь": 2799,
      "Президент": 2800,
      "Лондо": 2801,
      "гии": 2802,
      "сок": 2803,
      "проекта": 2804,
      "мена": 2805,
      "лем": 2806,
      "рить": 2807,
      "комменти": 2808,
      "предупре": 2809,
      "st": 2810,
      "стью": 2811,
      "рю": 2812,
      "близ": 2813,
      "кану": 2814,
      "связан": 2815,
      "Андрей": 2816,
      "бес": 2817,
      "били": 2818,
      "населения": 2819,
      "тради": 2820,
      "кни": 2821,
      "ственной": 2822,
      "Германии": 2823,
      "затем": 2824,
      "дали": 2825,
      "доказа": 2826,
      "Дон": 2827,
      "требу": 2828,
      "шан": 2829,
      "такое": 2830,
      "Согласно": 2831,
      "нение": 2832,
      "одним": 2833,
      "тельного": 2834,
      "региона": 2835,
      "вас": 2836,
      "мэ": 2837,
      "заболе": 2838,
      "сек": 2839,
      "круг": 2840,
      "россиян": 2841,
      "тек": 2842,
      "норма": 2843,
      "сай": 2844,
      "ложен": 2845,
      "гом": 2846,
      "ними": 2847,
      "щую": 2848,
      "пунк": 2849,
      "Москва": 2850,
      "ООН": 2851,
      "кобы": 2852,
      "2015": 2853,
      "осо": 2854,
      "ственный": 2855,
      "выше": 2856,
      "прокура": 2857,
      "некоторые": 2858,
      "шком": 2859,
      "НАТО": 2860,
      "роль": 2861,
      "обороны": 2862,
      "корре": 2863,
      "теа": 2864,
      "интерес": 2865,
      "политики": 2866,
      "ic": 2867,
      "тури": 2868,
      "ина": 2869,
      "принци": 2870,
      "мили": 2871,
      "получить": 2872,
      "метров": 2873,
      "юсь": 2874,
      "ремо": 2875,
      "многих": 2876,
      "двига": 2877,
      "согласи": 2878,
      "современ": 2879,
      "ьше": 2880,
      "инициа": 2881,
      "ана": 2882,
      "поста": 2883,
      "изи": 2884,
      "Ира": 2885,
      "заявление": 2886,
      "матча": 2887,
      "таким": 2888,
      "обвинения": 2889,
      "помина": 2890,
      "веден": 2891,
      "цель": 2892,
      "иностранных": 2893,
      "свет": 2894,
      "практически": 2895,
      "МВД": 2896,
      "наи": 2897,
      "производи": 2898,
      "лог": 2899,
      "речь": 2900,
      "коронавиру": 2901,
      "ум": 2902,
      "Оба": 2903,
      "зма": 2904,
      "вить": 2905,
      "позволя": 2906,
      "памя": 2907,
      "бар": 2908,
      "Дональ": 2909,
      "апреля": 2910,
      "сыгра": 2911,
      "сезо": 2912,
      "началь": 2913,
      "чил": 2914,
      "люд": 2915,
      "независи": 2916,
      "порта": 2917,
      "недо": 2918,
      "освобо": 2919,
      "чать": 2920,
      "раб": 2921,
      "встречи": 2922,
      "кануне": 2923,
      "кампа": 2924,
      "выборах": 2925,
      "союз": 2926,
      "российский": 2927,
      "уточ": 2928,
      "понедель": 2929,
      "узна": 2930,
      "июля": 2931,
      "выступи": 2932,
      "ракет": 2933,
      "каждый": 2934,
      "полови": 2935,
      "щем": 2936,
      "содержа": 2937,
      "напад": 2938,
      "зин": 2939,
      "якобы": 2940,
      "2019": 2941,
      "фигу": 2942,
      "Гу": 2943,
      "Тогда": 2944,
      "сборной": 2945,
      "аб": 2946,
      "акции": 2947,
      "комитета": 2948,
      "благо": 2949,
      "написал": 2950,
      "назвал": 2951,
      "сих": 2952,
      "эксперты": 2953,
      "стями": 2954,
      "дия": 2955,
      "ква": 2956,
      "уче": 2957,
      "креди": 2958,
      "объясня": 2959,
      "ологи": 2960,
      "лер": 2961,
      "Ша": 2962,
      "парламента": 2963,
      "надле": 2964,
      "движения": 2965,
      "такого": 2966,
      "жений": 2967,
      "делу": 2968,
      "Москов": 2969,
      "июня": 2970,
      "выход": 2971,
      "Газете": 2972,
      "Бер": 2973,
      "выборы": 2974,
      "потеря": 2975,
      "всей": 2976,
      "выраз": 2977,
      "2013": 2978,
      "ата": 2979,
      "здоров": 2980,
      "примерно": 2981,
      "учены": 2982,
      "министер": 2983,
      "док": 2984,
      "военных": 2985,
      "мероприя": 2986,
      "Восто": 2987,
      "иска": 2988,
      "лых": 2989,
      "выступ": 2990,
      "оконча": 2991,
      "стам": 2992,
      "ситуацию": 2993,
      "поддержа": 2994,
      "сайте": 2995,
      "Воз": 2996,
      "лки": 2997,
      "Серге": 2998,
      "Алексей": 2999,
      "ace": 3000,
      "группа": 3001,
      "отсут": 3002,
      "изо": 3003,
      "отправи": 3004,
      "тных": 3005,
      "возможности": 3006,
      "брать": 3007,
      "шлось": 3008,
      "Крем": 3009,
      "праз": 3010,
      "стом": 3011,
      "лый": 3012,
      "берна": 3013,
      "совершенно": 3014,
      "ванием": 3015,
      "80": 3016,
      "правоохра": 3017,
      "информацию": 3018,
      "доби": 3019,
      "фотографи": 3020,
      "поки": 3021,
      "жит": 3022,
      "октября": 3023,
      "истори": 3024,
      "запад": 3025,
      "проблема": 3026,
      "доволь": 3027,
      "месяцев": 3028,
      "несмотря": 3029,
      "страте": 3030,
      "августа": 3031,
      "прогно": 3032,
      "средств": 3033,
      "нельзя": 3034,
      "особенно": 3035,
      "судеб": 3036,
      "70": 3037,
      "Ри": 3038,
      "ятся": 3039,
      "жителей": 3040,
      "управления": 3041,
      "рил": 3042,
      "францу": 3043,
      "вопросы": 3044,
      "пет": 3045,
      "опро": 3046,
      "средства": 3047,
      "оши": 3048,
      "цами": 3049,
      "мышлен": 3050,
      "Петербур": 3051,
      "бюджет": 3052,
      "совсем": 3053,
      "спра": 3054,
      "вало": 3055,
      "разме": 3056,
      "нять": 3057,
      "часов": 3058,
      "программы": 3059,
      "присут": 3060,
      "дав": 3061,
      "медицин": 3062,
      "обсужда": 3063,
      "хочет": 3064,
      "тили": 3065,
      "раба": 3066,
      "фика": 3067,
      "огром": 3068,
      "являются": 3069,
      "НР": 3070,
      "цам": 3071,
      "ерен": 3072,
      "думы": 3073,
      "вшая": 3074,
      "вся": 3075,
      "Ло": 3076,
      "ап": 3077,
      "верх": 3078,
      "лам": 3079,
      "ноября": 3080,
      "ями": 3081,
      "бело": 3082,
      "поль": 3083,
      "спортсмен": 3084,
      "приходи": 3085,
      "россия": 3086,
      "первой": 3087,
      "равно": 3088,
      "скорее": 3089,
      "щу": 3090,
      "озна": 3091,
      "никаких": 3092,
      "уровне": 3093,
      "ing": 3094,
      "пользу": 3095,
      "поводу": 3096,
      "Крас": 3097,
      "Пи": 3098,
      "деля": 3099,
      "ядер": 3100,
      "мых": 3101,
      "использу": 3102,
      "вариан": 3103,
      "вну": 3104,
      "нику": 3105,
      "гна": 3106,
      "получили": 3107,
      "лимпий": 3108,
      "2010": 3109,
      "эй": 3110,
      "Евг": 3111,
      "понедельник": 3112,
      "re": 3113,
      "слишком": 3114,
      "сю": 3115,
      "дина": 3116,
      "компаний": 3117,
      "льное": 3118,
      "Донба": 3119,
      "касается": 3120,
      "опублико": 3121,
      "принадле": 3122,
      "клад": 3123,
      "телекана": 3124,
      "произошло": 3125,
      "мимо": 3126,
      "Франции": 3127,
      "кажется": 3128,
      "эффектив": 3129,
      "экономики": 3130,
      "диплома": 3131,
      "зар": 3132,
      "il": 3133,
      "купи": 3134,
      "Кри": 3135,
      "сме": 3136,
      "дает": 3137,
      "тельным": 3138,
      "впервые": 3139,
      "Медве": 3140,
      "число": 3141,
      "период": 3142,
      "гос": 3143,
      "плохо": 3144,
      "вит": 3145,
      "Глав": 3146,
      "беспо": 3147,
      "тей": 3148,
      "санкции": 3149,
      "первых": 3150,
      "нных": 3151,
      "Мини": 3152,
      "Гру": 3153,
      "27": 3154,
      "силы": 3155,
      "руется": 3156,
      "Вот": 3157,
      "тябре": 3158,
      "Владимира": 3159,
      "ственного": 3160,
      "похо": 3161,
      "лиде": 3162,
      "самолет": 3163,
      "второ": 3164,
      "ента": 3165,
      "быстро": 3166,
      "жест": 3167,
      "помощью": 3168,
      "рование": 3169,
      "целом": 3170,
      "наказа": 3171,
      "дополнитель": 3172,
      "сотрудников": 3173,
      "среду": 3174,
      "инвести": 3175,
      "жных": 3176,
      "гон": 3177,
      "дется": 3178,
      "съ": 3179,
      "замести": 3180,
      "пон": 3181,
      "воды": 3182,
      "коммента": 3183,
      "сказали": 3184,
      "нется": 3185,
      "кате": 3186,
      "рейтин": 3187,
      "дя": 3188,
      "26": 3189,
      "професси": 3190,
      "рели": 3191,
      "роб": 3192,
      "срок": 3193,
      "стреми": 3194,
      "мые": 3195,
      "сажи": 3196,
      "вспо": 3197,
      "пру": 3198,
      "льная": 3199,
      "лез": 3200,
      "нау": 3201,
      "случай": 3202,
      "зывать": 3203,
      "СБ": 3204,
      "данных": 3205,
      "вшим": 3206,
      "начали": 3207,
      "Изра": 3208,
      "выигра": 3209,
      "тной": 3210,
      "выбор": 3211,
      "цо": 3212,
      "раньше": 3213,
      "циона": 3214,
      "состави": 3215,
      "джи": 3216,
      "ост": 3217,
      "властей": 3218,
      "ou": 3219,
      "конку": 3220,
      "доступ": 3221,
      "ook": 3222,
      "Ана": 3223,
      "нескольких": 3224,
      "вей": 3225,
      "газа": 3226,
      "зри": 3227,
      "искус": 3228,
      "СР": 3229,
      "лья": 3230,
      "трав": 3231,
      "случи": 3232,
      "вляет": 3233,
      "корруп": 3234,
      "роли": 3235,
      "скоро": 3236,
      "ходы": 3237,
      "соц": 3238,
      "предприя": 3239,
      "Иго": 3240,
      "всю": 3241,
      "наблюда": 3242,
      "рассматри": 3243,
      "районе": 3244,
      "Сто": 3245,
      "здра": 3246,
      "цити": 3247,
      "представители": 3248,
      "выгля": 3249,
      "универси": 3250,
      "пятницу": 3251,
      "аэро": 3252,
      "пой": 3253,
      "28": 3254,
      "центре": 3255,
      "столько": 3256,
      "празд": 3257,
      "муни": 3258,
      "сфе": 3259,
      "полне": 3260,
      "остается": 3261,
      "шений": 3262,
      "секретарь": 3263,
      "ционной": 3264,
      "помощь": 3265,
      "прокуро": 3266,
      "активи": 3267,
      "мощ": 3268,
      "жало": 3269,
      "удов": 3270,
      "Теперь": 3271,
      "условиях": 3272,
      "сена": 3273,
      "конферен": 3274,
      "состав": 3275,
      "МИД": 3276,
      "ходов": 3277,
      "штаб": 3278,
      "выну": 3279,
      "вооружен": 3280,
      "сирий": 3281,
      "вече": 3282,
      "стату": 3283,
      "рина": 3284,
      "возбу": 3285,
      "претен": 3286,
      "губерна": 3287,
      "самого": 3288,
      "президентом": 3289,
      "странице": 3290,
      "недели": 3291,
      "лети": 3292,
      "китай": 3293,
      "посо": 3294,
      "проблем": 3295,
      "тые": 3296,
      "Интер": 3297,
      "отя": 3298,
      "вторник": 3299,
      "ото": 3300,
      "Джон": 3301,
      "февраля": 3302,
      "следует": 3303,
      "ществ": 3304,
      "бывший": 3305,
      "нуж": 3306,
      "видно": 3307,
      "вице": 3308,
      "бизне": 3309,
      "распростран": 3310,
      "военно": 3311,
      "Пар": 3312,
      "смерти": 3313,
      "болез": 3314,
      "клады": 3315,
      "денег": 3316,
      "банка": 3317,
      "Великобритании": 3318,
      "йден": 3319,
      "чным": 3320,
      "стои": 3321,
      "вза": 3322,
      "различ": 3323,
      "чении": 3324,
      "пассажи": 3325,
      "партне": 3326,
      "Медведе": 3327,
      "смы": 3328,
      "ено": 3329,
      "ссия": 3330,
      "конца": 3331,
      "физи": 3332,
      "парламент": 3333,
      "одном": 3334,
      "свидетель": 3335,
      "четверг": 3336,
      "пяти": 3337,
      "техниче": 3338,
      "Бар": 3339,
      "дальней": 3340,
      "единен": 3341,
      "большинство": 3342,
      "ющая": 3343,
      "наших": 3344,
      "совета": 3345,
      "ровки": 3346,
      "первую": 3347,
      "Верхов": 3348,
      "Ту": 3349,
      "вшись": 3350,
      "лле": 3351,
      "охран": 3352,
      "совмест": 3353,
      "жет": 3354,
      "служба": 3355,
      "оно": 3356,
      "om": 3357,
      "лении": 3358,
      "работает": 3359,
      "зон": 3360,
      "происходит": 3361,
      "колле": 3362,
      "Ne": 3363,
      "газо": 3364,
      "разгово": 3365,
      "геро": 3366,
      "Нет": 3367,
      "первого": 3368,
      "Face": 3369,
      "рубе": 3370,
      "мец": 3371,
      "Рус": 3372,
      "book": 3373,
      "сотрудниче": 3374,
      "платы": 3375,
      "положи": 3376,
      "Амери": 3377,
      "услу": 3378,
      "чай": 3379,
      "Поли": 3380,
      "Там": 3381,
      "льщи": 3382,
      "инци": 3383,
      "сит": 3384,
      "уровень": 3385,
      "Хотя": 3386,
      "кер": 3387,
      "союза": 3388,
      "действий": 3389,
      "выро": 3390,
      "странах": 3391,
      "отра": 3392,
      "вли": 3393,
      "действу": 3394,
      "провести": 3395,
      "шить": 3396,
      "зло": 3397,
      "Экс": 3398,
      "Пока": 3399,
      "первом": 3400,
      "фильма": 3401,
      "передает": 3402,
      "зрения": 3403,
      "фильм": 3404,
      "превы": 3405,
      "система": 3406,
      "Facebook": 3407,
      "im": 3408,
      "лее": 3409,
      "администрации": 3410,
      "приеха": 3411,
      "региональ": 3412,
      "матче": 3413,
      "Бори": 3414,
      "ционных": 3415,
      "Аль": 3416,
      "команда": 3417,
      "непри": 3418,
      "Нава": 3419,
      "In": 3420,
      "сад": 3421,
      "el": 3422,
      "Кие": 3423,
      "Мне": 3424,
      "вполне": 3425,
      "правда": 3426,
      "ака": 3427,
      "тики": 3428,
      "друга": 3429,
      "шно": 3430,
      "участников": 3431,
      "англи": 3432,
      "финанси": 3433,
      "сах": 3434,
      "скры": 3435,
      "закона": 3436,
      "выясни": 3437,
      "незакон": 3438,
      "увеличи": 3439,
      "полномо": 3440,
      "устрой": 3441,
      "женщин": 3442,
      "зывают": 3443,
      "Белору": 3444,
      "довольно": 3445,
      "оружия": 3446,
      "еже": 3447,
      "сан": 3448,
      "газета": 3449,
      "раза": 3450,
      "организо": 3451,
      "ид": 3452,
      "паци": 3453,
      "Киев": 3454,
      "шать": 3455,
      "Поль": 3456,
      "Раз": 3457,
      "волю": 3458,
      "помога": 3459,
      "отстав": 3460,
      "29": 3461,
      "вича": 3462,
      "нению": 3463,
      "Европе": 3464,
      "банк": 3465,
      "тил": 3466,
      "фоне": 3467,
      "определен": 3468,
      "ведомства": 3469,
      "ющее": 3470,
      "кими": 3471,
      "принять": 3472,
      "неделе": 3473,
      "мене": 3474,
      "воскре": 3475,
      "поддержку": 3476,
      "деть": 3477,
      "запи": 3478,
      "службе": 3479,
      "утверждает": 3480,
      "лож": 3481,
      "американских": 3482,
      "мага": 3483,
      "концер": 3484,
      "Среди": 3485,
      "процесс": 3486,
      "лидера": 3487,
      "пришлось": 3488,
      "вес": 3489,
      "состоянии": 3490,
      "план": 3491,
      "рассказывает": 3492,
      "чено": 3493,
      "льном": 3494,
      "ственных": 3495,
      "ниц": 3496,
      "Зелен": 3497,
      "ческая": 3498,
      "стами": 3499,
      "Ча": 3500,
      "новь": 3501,
      "зах": 3502,
      "точки": 3503,
      "винов": 3504,
      "сур": 3505,
      "результаты": 3506,
      "приводи": 3507,
      "отдель": 3508,
      "деятельности": 3509,
      "прос": 3510,
      "вила": 3511,
      "представителей": 3512,
      "нул": 3513,
      "умер": 3514,
      "конкурен": 3515,
      "самым": 3516,
      "тию": 3517,
      "гие": 3518,
      "веща": 3519,
      "имеют": 3520,
      "избе": 3521,
      "ФА": 3522,
      "оди": 3523,
      "бок": 3524,
      "пояснил": 3525,
      "суль": 3526,
      "найти": 3527,
      "пригла": 3528,
      "бай": 3529,
      "Сам": 3530,
      "нефти": 3531,
      "бора": 3532,
      "гар": 3533,
      "is": 3534,
      "комен": 3535,
      "2020": 3536,
      "ционного": 3537,
      "силия": 3538,
      "РИ": 3539,
      "заявления": 3540,
      "твор": 3541,
      "прово": 3542,
      "месяца": 3543,
      "конкре": 3544,
      "дого": 3545,
      "хотят": 3546,
      "90": 3547,
      "Александра": 3548,
      "останови": 3549,
      "ясь": 3550,
      "деми": 3551,
      "контак": 3552,
      "выда": 3553,
      "рованы": 3554,
      "вании": 3555,
      "рица": 3556,
      "вокруг": 3557,
      "взгля": 3558,
      "тья": 3559,
      "француз": 3560,
      "сильно": 3561,
      "прямо": 3562,
      "обща": 3563,
      "щим": 3564,
      "тные": 3565,
      "приобре": 3566,
      "конфликта": 3567,
      "сила": 3568,
      "солют": 3569,
      "пропа": 3570,
      "Нью": 3571,
      "позиции": 3572,
      "Михаил": 3573,
      "операции": 3574,
      "креп": 3575,
      "ой": 3576,
      "работал": 3577,
      "вак": 3578,
      "самой": 3579,
      "Европей": 3580,
      "возник": 3581,
      "версии": 3582,
      "рынке": 3583,
      "зей": 3584,
      "сообщила": 3585,
      "ровала": 3586,
      "рок": 3587,
      "регули": 3588,
      "района": 3589,
      "покупа": 3590,
      "пуск": 3591,
      "тельное": 3592,
      "сможет": 3593,
      "ВВС": 3594,
      "Ор": 3595,
      "чном": 3596,
      "дальше": 3597,
      "чемпионата": 3598,
      "ребенка": 3599,
      "депутат": 3600,
      "находятся": 3601,
      "площад": 3602,
      "дро": 3603,
      "составляет": 3604,
      "вида": 3605,
      "Например": 3606,
      "попыт": 3607,
      "думаю": 3608,
      "вновь": 3609,
      "звез": 3610,
      "митин": 3611,
      "данный": 3612,
      "жением": 3613,
      "35": 3614,
      "пин": 3615,
      "работе": 3616,
      "дже": 3617,
      "стратеги": 3618,
      "зм": 3619,
      "будем": 3620,
      "членов": 3621,
      "худо": 3622,
      "семьи": 3623,
      "туда": 3624,
      "нюю": 3625,
      "могу": 3626,
      "ственные": 3627,
      "документа": 3628,
      "демонстри": 3629,
      "направ": 3630,
      "СССР": 3631,
      "погибли": 3632,
      "отношений": 3633,
      "реда": 3634,
      "сотрудники": 3635,
      "Эти": 3636,
      "согласно": 3637,
      "бир": 3638,
      "изменения": 3639,
      "лод": 3640,
      "Центра": 3641,
      "некоторых": 3642,
      "тере": 3643,
      "предпринима": 3644,
      "стин": 3645,
      "приве": 3646,
      "запрещен": 3647,
      "Есть": 3648,
      "служа": 3649,
      "Крыма": 3650,
      "Вто": 3651,
      "Новости": 3652,
      "вори": 3653,
      "катего": 3654,
      "нечно": 3655,
      "гах": 3656,
      "каких": 3657,
      "институ": 3658,
      "итогам": 3659,
      "роста": 3660,
      "сообщения": 3661,
      "придется": 3662,
      "скон": 3663,
      "вынужден": 3664,
      "цент": 3665,
      "оказался": 3666,
      "подпи": 3667,
      "переговоры": 3668,
      "бин": 3669,
      "Глава": 3670,
      "чная": 3671,
      "начал": 3672,
      "ствовал": 3673,
      "благодаря": 3674,
      "рыва": 3675,
      "военные": 3676,
      "лете": 3677,
      "ченных": 3678,
      "лые": 3679,
      "футболи": 3680,
      "обраща": 3681,
      "исследования": 3682,
      "ol": 3683,
      "суббо": 3684,
      "The": 3685,
      "карь": 3686,
      "жает": 3687,
      "Чи": 3688,
      "демии": 3689,
      "Кор": 3690,
      "Аф": 3691,
      "чуть": 3692,
      "пле": 3693,
      "мани": 3694,
      "священ": 3695,
      "соответству": 3696,
      "блоки": 3697,
      "циях": 3698,
      "силу": 3699,
      "сель": 3700,
      "фикси": 3701,
      "Крым": 3702,
      "торго": 3703,
      "лях": 3704,
      "решили": 3705,
      "туру": 3706,
      "Ав": 3707,
      "мигран": 3708,
      "Ге": 3709,
      "служи": 3710,
      "миниму": 3711,
      "главный": 3712,
      "боеви": 3713,
      "санкций": 3714,
      "км": 3715,
      "ведли": 3716,
      "уво": 3717,
      "Турции": 3718,
      "лот": 3719,
      "нные": 3720,
      "гой": 3721,
      "пок": 3722,
      "издание": 3723,
      "готовы": 3724,
      "плане": 3725,
      "персона": 3726,
      "рази": 3727,
      "неодно": 3728,
      "разных": 3729,
      "сдел": 3730,
      "аресто": 3731,
      "ешь": 3732,
      "ваны": 3733,
      "отрица": 3734,
      "психо": 3735,
      "Этот": 3736,
      "Китай": 3737,
      "банков": 3738,
      "жены": 3739,
      "молоды": 3740,
      "менты": 3741,
      "армии": 3742,
      "виду": 3743,
      "рядом": 3744,
      "лично": 3745,
      "группи": 3746,
      "тива": 3747,
      "имени": 3748,
      "живот": 3749,
      "рекомен": 3750,
      "прожи": 3751,
      "вшихся": 3752,
      "постоянно": 3753,
      "тренер": 3754,
      "расши": 3755,
      "корреспон": 3756,
      "украинских": 3757,
      "примен": 3758,
      "цитирует": 3759,
      "зь": 3760,
      "ческим": 3761,
      "нач": 3762,
      "эле": 3763,
      "емся": 3764,
      "список": 3765,
      "май": 3766,
      "конкур": 3767,
      "воскресен": 3768,
      "абсолют": 3769,
      "Ти": 3770,
      "тысячи": 3771,
      "оз": 3772,
      "чку": 3773,
      "матч": 3774,
      "зом": 3775,
      "раздо": 3776,
      "испыта": 3777,
      "преступления": 3778,
      "немец": 3779,
      "прод": 3780,
      "вов": 3781,
      "миру": 3782,
      "знаю": 3783,
      "шоу": 3784,
      "сделал": 3785,
      "ствовали": 3786,
      "порт": 3787,
      "статисти": 3788,
      "прежде": 3789,
      "аппара": 3790,
      "шению": 3791,
      "лад": 3792,
      "Пути": 3793,
      "шему": 3794,
      "середи": 3795,
      "четырех": 3796,
      "макси": 3797,
      "решил": 3798,
      "Многи": 3799,
      "ставили": 3800,
      "ционный": 3801,
      "считы": 3802,
      "родствен": 3803,
      "говорили": 3804,
      "мнение": 3805,
      "стаи": 3806,
      "цвет": 3807,
      "ческое": 3808,
      "Ива": 3809,
      "интернет": 3810,
      "использовать": 3811,
      "et": 3812,
      "победу": 3813,
      "нефть": 3814,
      "тельств": 3815,
      "свободы": 3816,
      "нега": 3817,
      "такая": 3818,
      "штраф": 3819,
      "посред": 3820,
      "напом": 3821,
      "Коре": 3822,
      "сери": 3823,
      "След": 3824,
      "правоохранитель": 3825,
      "комиссии": 3826,
      "потен": 3827,
      "осно": 3828,
      "публика": 3829,
      "страну": 3830,
      "сцена": 3831,
      "цены": 3832,
      "форму": 3833,
      "меть": 3834,
      "месяц": 3835,
      "нит": 3836,
      "смотр": 3837,
      "функ": 3838,
      "рабаты": 3839,
      "Сего": 3840,
      "сфер": 3841,
      "летов": 3842,
      "us": 3843,
      "клуба": 3844,
      "мол": 3845,
      "Несмотря": 3846,
      "десяти": 3847,
      "Конечно": 3848,
      "интересо": 3849,
      "Сегодня": 3850,
      "ляции": 3851,
      "сот": 3852,
      "супру": 3853,
      "валась": 3854,
      "циф": 3855,
      "____": 3856,
      "нарко": 3857,
      "сексу": 3858,
      "всему": 3859,
      "англий": 3860,
      "речи": 3861,
      "скор": 3862,
      "Газета": 3863,
      "знако": 3864,
      "соглашения": 3865,
      "сказыва": 3866,
      "лять": 3867,
      "далеко": 3868,
      "крупней": 3869,
      "рассказала": 3870,
      "неде": 3871,
      "стоимо": 3872,
      "сетях": 3873,
      "реаги": 3874,
      "своими": 3875,
      "дети": 3876,
      "напря": 3877,
      "лкой": 3878,
      "влен": 3879,
      "гри": 3880,
      "карти": 3881,
      "департа": 3882,
      "сна": 3883,
      "государство": 3884,
      "ot": 3885,
      "практи": 3886,
      "pp": 3887,
      "Федерации": 3888,
      "установи": 3889,
      "преды": 3890,
      "недавно": 3891,
      "емый": 3892,
      "Националь": 3893,
      "пациен": 3894,
      "снизи": 3895,
      "запа": 3896,
      "31": 3897,
      "регистри": 3898,
      "широ": 3899,
      "активно": 3900,
      "as": 3901,
      "платить": 3902,
      "тона": 3903,
      "тивно": 3904,
      "мето": 3905,
      "емые": 3906,
      "транспорт": 3907,
      "женщины": 3908,
      "будь": 3909,
      "события": 3910,
      "рынка": 3911,
      "самый": 3912,
      "нина": 3913,
      "контроли": 3914,
      "другими": 3915,
      "поме": 3916,
      "бывшего": 3917,
      "страна": 3918,
      "переговоров": 3919,
      "пообеща": 3920,
      "национальной": 3921,
      "которому": 3922,
      "РИА": 3923,
      "конференции": 3924,
      "значит": 3925,
      "Ад": 3926,
      "валют": 3927,
      "факт": 3928,
      "добро": 3929,
      "важно": 3930,
      "преимуще": 3931,
      "осуществ": 3932,
      "ion": 3933,
      "2009": 3934,
      "45": 3935,
      "развед": 3936,
      "лень": 3937,
      "сторону": 3938,
      "кло": 3939,
      "Мер": 3940,
      "емого": 3941,
      "власть": 3942,
      "зай": 3943,
      "настро": 3944,
      "коронавируса": 3945,
      "Прав": 3946,
      "Газпро": 3947,
      "слуша": 3948,
      "предыду": 3949,
      "зво": 3950,
      "невозможно": 3951,
      "победи": 3952,
      "чное": 3953,
      "тюрь": 3954,
      "миллиар": 3955,
      "Один": 3956,
      "превра": 3957,
      "Сою": 3958,
      "алкого": 3959,
      "мировой": 3960,
      "Представи": 3961,
      "ошиб": 3962,
      "смогут": 3963,
      "относительно": 3964,
      "лах": 3965,
      "бил": 3966,
      "защиты": 3967,
      "град": 3968,
      "свобод": 3969,
      "метро": 3970,
      "Ман": 3971,
      "Именно": 3972,
      "коллек": 3973,
      "оде": 3974,
      "золо": 3975,
      "протя": 3976,
      "эт": 3977,
      "играть": 3978,
      "ува": 3979,
      "ностей": 3980,
      "ферен": 3981,
      "Гре": 3982,
      "ческую": 3983,
      "мым": 3984,
      "Никола": 3985,
      "уничто": 3986,
      "воздуш": 3987,
      "Москву": 3988,
      "проходи": 3989,
      "лений": 3990,
      "бал": 3991,
      "Лука": 3992,
      "воскресенье": 3993,
      "чается": 3994,
      "Многие": 3995,
      "шесть": 3996,
      "оби": 3997,
      "жного": 3998,
      "лица": 3999,
      "Сергея": 4000,
      "захва": 4001,
      "понять": 4002,
      "самое": 4003,
      "основном": 4004,
      "оказались": 4005,
      "дон": 4006,
      "Аб": 4007,
      "ава": 4008,
      "включая": 4009,
      "Алексе": 4010,
      "одну": 4011,
      "весто": 4012,
      "нарушения": 4013,
      "мый": 4014,
      "рекла": 4015,
      "проведения": 4016,
      "команду": 4017,
      "лии": 4018,
      "щать": 4019,
      "СИ": 4020,
      "ресур": 4021,
      "улуч": 4022,
      "дий": 4023,
      "вторы": 4024,
      "стива": 4025,
      "II": 4026,
      "катастро": 4027,
      "ссер": 4028,
      "уровня": 4029,
      "условия": 4030,
      "напомина": 4031,
      "стр": 4032,
      "печат": 4033,
      "Правда": 4034,
      "целью": 4035,
      "последний": 4036,
      "фир": 4037,
      "Дэ": 4038,
      "легко": 4039,
      "источник": 4040,
      "сор": 4041,
      "оны": 4042,
      "гости": 4043,
      "настоящее": 4044,
      "Доне": 4045,
      "тивных": 4046,
      "органов": 4047,
      "куп": 4048,
      "New": 4049,
      "гети": 4050,
      "чью": 4051,
      "гораздо": 4052,
      "деления": 4053,
      "порядка": 4054,
      "Международ": 4055,
      "посмотреть": 4056,
      "хотел": 4057,
      "Андре": 4058,
      "капита": 4059,
      "ваний": 4060,
      "сама": 4061,
      "”.": 4062,
      "регуляр": 4063,
      "составе": 4064,
      "ждать": 4065,
      "Донец": 4066,
      "льную": 4067,
      "ссоциа": 4068,
      "жде": 4069,
      "пущен": 4070,
      "наиболее": 4071,
      "последнее": 4072,
      "гаран": 4073,
      "неделю": 4074,
      "жали": 4075,
      "тельная": 4076,
      "кров": 4077,
      "заявлении": 4078,
      "мно": 4079,
      "тный": 4080,
      "опыт": 4081,
      "пути": 4082,
      "директора": 4083,
      "нией": 4084,
      "гани": 4085,
      "нной": 4086,
      "Британии": 4087,
      "видеть": 4088,
      "ими": 4089,
      "сложно": 4090,
      "нести": 4091,
      "валось": 4092,
      "сист": 4093,
      "дни": 4094,
      "кса": 4095,
      "подвер": 4096,
      "кроме": 4097,
      "акций": 4098,
      "мость": 4099,
      "семей": 4100,
      "жена": 4101,
      "Экспер": 4102,
      "самолета": 4103,
      "Джо": 4104,
      "болельщи": 4105,
      "обстоя": 4106,
      "иметь": 4107,
      "степен": 4108,
      "хозяй": 4109,
      "тари": 4110,
      "суди": 4111,
      "продолжает": 4112,
      "адрес": 4113,
      "распростра": 4114,
      "приводит": 4115,
      "кратно": 4116,
      "ночь": 4117,
      "американского": 4118,
      "снима": 4119,
      "дево": 4120,
      "gra": 4121,
      "формы": 4122,
      "режима": 4123,
      "рассчиты": 4124,
      "серви": 4125,
      "кнов": 4126,
      "ощу": 4127,
      "постанов": 4128,
      "зор": 4129,
      "id": 4130,
      "уголовное": 4131,
      "сфере": 4132,
      "председатель": 4133,
      "дор": 4134,
      "удар": 4135,
      "2008": 4136,
      "борьбе": 4137,
      "простран": 4138,
      "руководство": 4139,
      "кило": 4140,
      "подозрева": 4141,
      "жители": 4142,
      "прось": 4143,
      "агре": 4144,
      "наш": 4145,
      "летнего": 4146,
      "мую": 4147,
      "журна": 4148,
      "обязан": 4149,
      "политической": 4150,
      "шний": 4151,
      "лий": 4152,
      "500": 4153,
      "рованных": 4154,
      "дво": 4155,
      "украинского": 4156,
      "фестива": 4157,
      "упа": 4158,
      "немного": 4159,
      "уви": 4160,
      "роде": 4161,
      "любой": 4162,
      "пустить": 4163,
      "высоко": 4164,
      "ниях": 4165,
      "бюджета": 4166,
      "ционные": 4167,
      "здраво": 4168,
      "роваться": 4169,
      "чную": 4170,
      "смогли": 4171,
      "Игорь": 4172,
      "иск": 4173,
      "оппозиции": 4174,
      "остро": 4175,
      "прежнему": 4176,
      "театра": 4177,
      "вирус": 4178,
      "бога": 4179,
      "руководитель": 4180,
      "регионе": 4181,
      "мужчина": 4182,
      "культуры": 4183,
      "втором": 4184,
      "лой": 4185,
      "вии": 4186,
      "положение": 4187,
      "процеду": 4188,
      "миллионов": 4189,
      "интерне": 4190,
      "предвари": 4191,
      "моз": 4192,
      "Дже": 4193,
      "стях": 4194,
      "знамени": 4195,
      "адвокат": 4196,
      "ряда": 4197,
      "ключе": 4198,
      "гами": 4199,
      "украинской": 4200,
      "Юрий": 4201,
      "люб": 4202,
      "военной": 4203,
      "республики": 4204,
      "мах": 4205,
      "организация": 4206,
      "навер": 4207,
      "проведен": 4208,
      "Таким": 4209,
      "провод": 4210,
      "станции": 4211,
      "субботу": 4212,
      "накануне": 4213,
      "потер": 4214,
      "спустя": 4215,
      "худ": 4216,
      "отече": 4217,
      "бран": 4218,
      "двое": 4219,
      "Санкт": 4220,
      "зация": 4221,
      "готови": 4222,
      "wit": 4223,
      "сообщении": 4224,
      "попыта": 4225,
      "Te": 4226,
      "швили": 4227,
      "давление": 4228,
      "закончи": 4229,
      "внутри": 4230,
      "тым": 4231,
      "эм": 4232,
      "СН": 4233,
      "годов": 4234,
      "принято": 4235,
      "am": 4236,
      "шает": 4237,
      "усили": 4238,
      "социальных": 4239,
      "клуб": 4240,
      "300": 4241,
      "маль": 4242,
      "энергети": 4243,
      "Гри": 4244,
      "женщина": 4245,
      "центр": 4246,
      "рынок": 4247,
      "нила": 4248,
      "требования": 4249,
      "привы": 4250,
      "темпера": 4251,
      "официально": 4252,
      "Израи": 4253,
      "первым": 4254,
      "случаев": 4255,
      "девя": 4256,
      "тивной": 4257,
      "тим": 4258,
      "чик": 4259,
      "тик": 4260,
      "дис": 4261,
      "востоке": 4262,
      "экспе": 4263,
      "ссылкой": 4264,
      "партий": 4265,
      "Ал": 4266,
      "расположен": 4267,
      "Слу": 4268,
      "App": 4269,
      "ано": 4270,
      "статье": 4271,
      "политических": 4272,
      "объясни": 4273,
      "Эта": 4274,
      "чиков": 4275,
      "мера": 4276,
      "Украин": 4277,
      "студен": 4278,
      "Япо": 4279,
      "тической": 4280,
      "вакци": 4281,
      "стаби": 4282,
      "кампании": 4283,
      "крайне": 4284,
      "создать": 4285,
      "школы": 4286,
      "телю": 4287,
      "Запад": 4288,
      "эль": 4289,
      "американские": 4290,
      "досто": 4291,
      "гром": 4292,
      "теку": 4293,
      "инвесто": 4294,
      "енко": 4295,
      "здравоохран": 4296,
      "летом": 4297,
      "вместо": 4298,
      "корпора": 4299,
      "получила": 4300,
      "российским": 4301,
      "годно": 4302,
      "Поз": 4303,
      "кораб": 4304,
      "сят": 4305,
      "неу": 4306,
      "добы": 4307,
      "страи": 4308,
      "владель": 4309,
      "живу": 4310,
      "партия": 4311,
      "компью": 4312,
      "яр": 4313,
      "нарушение": 4314,
      "взаимо": 4315,
      "трени": 4316,
      "нный": 4317,
      "документы": 4318,
      "сообще": 4319,
      "Эр": 4320,
      "оказыва": 4321,
      "резо": 4322,
      "хими": 4323,
      "людям": 4324,
      "тического": 4325,
      "Tim": 4326,
      "ющем": 4327,
      "ch": 4328,
      "архи": 4329,
      "могла": 4330,
      "руки": 4331,
      "Пра": 4332,
      "строить": 4333,
      "езда": 4334,
      "магази": 4335,
      "жила": 4336,
      "самми": 4337,
      "поступи": 4338,
      "расследования": 4339,
      "вами": 4340,
      "ковой": 4341,
      "референ": 4342,
      "Виктор": 4343,
      "турец": 4344,
      "вшийся": 4345,
      "принял": 4346,
      "Коро": 4347,
      "вышел": 4348,
      "Белоруссии": 4349,
      "приняли": 4350,
      "вряд": 4351,
      "мать": 4352,
      "леты": 4353,
      "площади": 4354,
      "ждении": 4355,
      "цем": 4356,
      "отмечают": 4357,
      "событий": 4358,
      "ответственность": 4359,
      "Испа": 4360,
      "Чтобы": 4361,
      "расследование": 4362,
      "un": 4363,
      "бить": 4364,
      "транс": 4365,
      "ющими": 4366,
      "патри": 4367,
      "автор": 4368,
      "СКА": 4369,
      "доме": 4370,
      "новре": 4371,
      "Госдумы": 4372,
      "нули": 4373,
      "история": 4374,
      "объявил": 4375,
      "witter": 4376,
      "ждает": 4377,
      "агентство": 4378,
      "еры": 4379,
      "агентства": 4380,
      "мяч": 4381,
      "разру": 4382,
      "Ак": 4383,
      "сексуаль": 4384,
      "Шта": 4385,
      "смотре": 4386,
      "информация": 4387,
      "воспо": 4388,
      "протеста": 4389,
      "Констан": 4390,
      "уж": 4391,
      "НД": 4392,
      "Украину": 4393,
      "ФСБ": 4394,
      "ственным": 4395,
      "Йор": 4396,
      "полномочи": 4397,
      "управля": 4398,
      "Более": 4399,
      "днев": 4400,
      "правил": 4401,
      "ed": 4402,
      "Гор": 4403,
      "тема": 4404,
      "молоде": 4405,
      "приходится": 4406,
      "бизнеса": 4407,
      "подчерки": 4408,
      "утверждают": 4409,
      "Почему": 4410,
      "менте": 4411,
      "!»": 4412,
      "позже": 4413,
      "последних": 4414,
      "соба": 4415,
      "дыха": 4416,
      "кет": 4417,
      "шут": 4418,
      "Совета": 4419,
      "американской": 4420,
      "регионов": 4421,
      "образования": 4422,
      "роз": 4423,
      "позицию": 4424,
      "менить": 4425,
      "рекор": 4426,
      "нуко": 4427,
      "Тимо": 4428,
      "действие": 4429,
      "исключи": 4430,
      "соглашение": 4431,
      "проя": 4432,
      "журналистов": 4433,
      "сче": 4434,
      "тит": 4435,
      "малень": 4436,
      "принимать": 4437,
      "револю": 4438,
      "спокой": 4439,
      "контроль": 4440,
      "уро": 4441,
      "согласо": 4442,
      "косми": 4443,
      "минимум": 4444,
      "существует": 4445,
      "белорус": 4446,
      "неожи": 4447,
      "подня": 4448,
      "стоимость": 4449,
      "St": 4450,
      "вступи": 4451,
      "здание": 4452,
      "работают": 4453,
      "дают": 4454,
      "грес": 4455,
      "сорев": 4456,
      "туаль": 4457,
      "Тре": 4458,
      "жные": 4459,
      "198": 4460,
      "неоднократно": 4461,
      "оло": 4462,
      "террористи": 4463,
      "Вол": 4464,
      "победы": 4465,
      "зарегистри": 4466,
      "Даже": 4467,
      "игру": 4468,
      "тельную": 4469,
      "масштаб": 4470,
      "лидеров": 4471,
      "меха": 4472,
      "подроб": 4473,
      "слыша": 4474,
      "поля": 4475,
      "мое": 4476,
      "ТА": 4477,
      "полиция": 4478,
      "комму": 4479,
      "середине": 4480,
      "шил": 4481,
      "экра": 4482,
      "стара": 4483,
      "дат": 4484,
      "встрече": 4485,
      "признал": 4486,
      "ir": 4487,
      "временем": 4488,
      "тором": 4489,
      "десят": 4490,
      "Их": 4491,
      "утра": 4492,
      "учре": 4493,
      "юриди": 4494,
      "вмеша": 4495,
      "борьбы": 4496,
      "стям": 4497,
      "кта": 4498,
      "инциден": 4499,
      "Лукашенко": 4500,
      "безу": 4501,
      "одоб": 4502,
      "Соединен": 4503,
      "хок": 4504,
      "довать": 4505,
      "поко": 4506,
      "марте": 4507,
      "территори": 4508,
      "большая": 4509,
      "учиты": 4510,
      "оч": 4511,
      "смог": 4512,
      "Ско": 4513,
      "противостоя": 4514,
      "торгов": 4515,
      "другим": 4516,
      "чета": 4517,
      "лением": 4518,
      "буд": 4519,
      "попада": 4520,
      "вопросам": 4521,
      "ющую": 4522,
      "ровано": 4523,
      "мон": 4524,
      "еру": 4525,
      "систему": 4526,
      "бума": 4527,
      "Только": 4528,
      "следствия": 4529,
      "обычно": 4530,
      "форме": 4531,
      "границы": 4532,
      "фактически": 4533,
      "протяжении": 4534,
      "Уже": 4535,
      "настаи": 4536,
      "понятно": 4537,
      "часа": 4538,
      "мана": 4539,
      "лимпиа": 4540,
      "BC": 4541,
      "имя": 4542,
      "момента": 4543,
      "рат": 4544,
      "чением": 4545,
      "знает": 4546,
      "называют": 4547,
      ".:": 4548,
      "тальян": 4549,
      "фин": 4550,
      "отдела": 4551,
      "нике": 4552,
      "прибы": 4553,
      "частью": 4554,
      "столич": 4555,
      "кви": 4556,
      "Американ": 4557,
      "све": 4558,
      "результат": 4559,
      "встрети": 4560,
      "призвал": 4561,
      "ниже": 4562,
      "Кто": 4563,
      "конститу": 4564,
      "замеча": 4565,
      "потребо": 4566,
      "Российской": 4567,
      "кризис": 4568,
      "декабре": 4569,
      "Николай": 4570,
      "рассказыва": 4571,
      "движение": 4572,
      "политика": 4573,
      "улице": 4574,
      "стандар": 4575,
      "Times": 4576,
      "Пере": 4577,
      "Китая": 4578,
      "нибудь": 4579,
      "национа": 4580,
      "убийства": 4581,
      "экспертов": 4582,
      "лению": 4583,
      "рит": 4584,
      "Оль": 4585,
      "соревнова": 4586,
      "помочь": 4587,
      "тивные": 4588,
      "Киеве": 4589,
      "УК": 4590,
      "необходимости": 4591,
      "следующий": 4592,
      "деятельность": 4593,
      "кризиса": 4594,
      "оружие": 4595,
      "машины": 4596,
      "Дональд": 4597,
      "ворота": 4598,
      "гря": 4599,
      "сначала": 4600,
      "жный": 4601,
      "становится": 4602,
      "обору": 4603,
      "клиен": 4604,
      "емой": 4605,
      "характер": 4606,
      "комитет": 4607,
      "присо": 4608,
      "одо": 4609,
      "чек": 4610,
      "чрез": 4611,
      "высказыва": 4612,
      "достиг": 4613,
      "вшиеся": 4614,
      "чаще": 4615,
      "слов": 4616,
      "син": 4617,
      "сосед": 4618,
      "мора": 4619,
      "суме": 4620,
      "новости": 4621,
      "зафикси": 4622,
      "употреб": 4623,
      "ГУ": 4624,
      "Рес": 4625,
      "мае": 4626,
      "выс": 4627,
      "ментов": 4628,
      "опубликова": 4629,
      "Хар": 4630,
      "Джей": 4631,
      "посла": 4632,
      "поддержки": 4633,
      "рода": 4634,
      "спекти": 4635,
      "разработ": 4636,
      "пору": 4637,
      "правозащит": 4638,
      "местных": 4639,
      "новым": 4640,
      "автобу": 4641,
      "причем": 4642,
      "провел": 4643,
      "кина": 4644,
      "вечером": 4645,
      "крас": 4646,
      "века": 4647,
      "ставки": 4648,
      "Исла": 4649,
      "профессиональ": 4650,
      "состояние": 4651,
      "циями": 4652,
      "материалы": 4653,
      "определи": 4654,
      "Бан": 4655,
      "ственное": 4656,
      "грози": 4657,
      "Фа": 4658,
      "менять": 4659,
      "производства": 4660,
      "ука": 4661,
      "журналист": 4662,
      "Жи": 4663,
      "чих": 4664,
      "Роб": 4665,
      "здания": 4666,
      "лка": 4667,
      "напада": 4668,
      "траге": 4669,
      "Некоторые": 4670,
      "дца": 4671,
      "фонда": 4672,
      "эмо": 4673,
      "абсолютно": 4674,
      "Кита": 4675,
      "плате": 4676,
      "правила": 4677,
      "любы": 4678,
      "ванию": 4679,
      "ленно": 4680,
      "второго": 4681,
      "историю": 4682,
      "действовать": 4683,
      "восстанов": 4684,
      "весьма": 4685,
      "тических": 4686,
      "эп": 4687,
      "представ": 4688,
      "статьи": 4689,
      "тивный": 4690,
      "фы": 4691,
      "уго": 4692,
      "трудно": 4693,
      "промышлен": 4694,
      "няет": 4695,
      "собе": 4696,
      "особо": 4697,
      "Англи": 4698,
      "обнов": 4699,
      "подраз": 4700,
      "можем": 4701,
      "конфликт": 4702,
      "возму": 4703,
      "чика": 4704,
      "заместитель": 4705,
      "депутатов": 4706,
      "Другие": 4707,
      "будущем": 4708,
      "большие": 4709,
      "Януко": 4710,
      "Еди": 4711,
      "катери": 4712,
      "отношение": 4713,
      "выйти": 4714,
      "каби": 4715,
      "реак": 4716,
      "ченные": 4717,
      "общества": 4718,
      "чат": 4719,
      "груз": 4720,
      "штаба": 4721,
      "пригово": 4722,
      "ответственности": 4723,
      "новременно": 4724,
      "сканда": 4725,
      "зья": 4726,
      "чению": 4727,
      "докла": 4728,
      "забо": 4729,
      "прокомменти": 4730,
      "фрон": 4731,
      "Али": 4732,
      "тного": 4733,
      "путе": 4734,
      "Евгений": 4735,
      "море": 4736,
      "цели": 4737,
      "поезд": 4738,
      "щер": 4739,
      "ехать": 4740,
      "Вале": 4741,
      "пришли": 4742,
      "бера": 4743,
      "кварта": 4744,
      "предложил": 4745,
      "ленный": 4746,
      "ами": 4747,
      "бит": 4748,
      "купа": 4749,
      "чиновников": 4750,
      "самые": 4751,
      "похи": 4752,
      "вовсе": 4753,
      "посоль": 4754,
      "оборудова": 4755,
      "лес": 4756,
      "жают": 4757,
      "ответил": 4758,
      "(«": 4759,
      "которыми": 4760,
      "Ке": 4761,
      "Ведь": 4762,
      "ограничи": 4763,
      "максима": 4764,
      "житель": 4765,
      "опубликован": 4766,
      "выразил": 4767,
      "футболь": 4768,
      "бка": 4769,
      "попы": 4770,
      "решить": 4771,
      "предполо": 4772,
      "сконча": 4773,
      "университета": 4774,
      "премьера": 4775,
      "столь": 4776,
      "оказалось": 4777,
      "сравнению": 4778,
      "вдо": 4779,
      "Нор": 4780,
      "жан": 4781,
      "Олег": 4782,
      "Донбассе": 4783,
      "предъя": 4784,
      "ющихся": 4785,
      "Послед": 4786,
      "потреби": 4787,
      "отказался": 4788,
      "Вене": 4789,
      "ствием": 4790,
      "коммер": 4791,
      "линии": 4792,
      "военнослужа": 4793,
      "веря": 4794,
      "хвата": 4795,
      "конструк": 4796,
      "погибших": 4797,
      "любо": 4798,
      "объе": 4799,
      "Грузии": 4800,
      "войска": 4801,
      "режим": 4802,
      "Apple": 4803,
      "военного": 4804,
      "Пари": 4805,
      "никак": 4806,
      "телефон": 4807,
      "журналистам": 4808,
      "постро": 4809,
      "участия": 4810,
      "стади": 4811,
      "район": 4812,
      "здравоохранения": 4813,
      "очередной": 4814,
      "говой": 4815,
      "голосования": 4816,
      "бороны": 4817,
      "Дело": 4818,
      "лайн": 4819,
      "”,": 4820,
      "аналоги": 4821,
      "арми": 4822,
      "мероприятия": 4823,
      "кад": 4824,
      "нобороны": 4825,
      "сентябре": 4826,
      "привлека": 4827,
      "ственная": 4828,
      "спаса": 4829,
      "прошлой": 4830,
      "хочу": 4831,
      "соз": 4832,
      "причиной": 4833,
      "поступа": 4834,
      "науч": 4835,
      "оба": 4836,
      "словно": 4837,
      "75": 4838,
      "водитель": 4839,
      "прило": 4840,
      "издания": 4841,
      "дам": 4842,
      "Tele": 4843,
      "обеспечи": 4844,
      "годах": 4845,
      "Наде": 4846,
      "Итали": 4847,
      "щению": 4848,
      "Лени": 4849,
      "разно": 4850,
      "разо": 4851,
      "столице": 4852,
      "реализо": 4853,
      "Twitter": 4854,
      "Вместе": 4855,
      "проигра": 4856,
      "вана": 4857,
      "пти": 4858,
      "гина": 4859,
      "означает": 4860,
      "сериа": 4861,
      "вернуть": 4862,
      "учения": 4863,
      "ent": 4864,
      "Всего": 4865,
      "хоть": 4866,
      "останов": 4867,
      "повлия": 4868,
      "пользователей": 4869,
      "предста": 4870,
      "органы": 4871,
      "сторона": 4872,
      "Петр": 4873,
      "зара": 4874,
      "произошел": 4875,
      "шек": 4876,
      "ведении": 4877,
      "ВВП": 4878,
      "мяг": 4879,
      "радика": 4880,
      "Ше": 4881,
      "тему": 4882,
      "апреле": 4883,
      "сумму": 4884,
      "чест": 4885,
      "повто": 4886,
      "призы": 4887,
      "фору": 4888,
      "жению": 4889,
      "Екатери": 4890,
      "няется": 4891,
      "домаш": 4892,
      "бед": 4893,
      "писы": 4894,
      "сия": 4895,
      "микро": 4896,
      "ссу": 4897,
      "инфра": 4898,
      "ученые": 4899,
      "соответствии": 4900,
      "пени": 4901,
      "gle": 4902,
      "Олимпиа": 4903,
      "разго": 4904,
      "ссор": 4905,
      "заседании": 4906,
      "сопрово": 4907,
      "Гар": 4908,
      "автомобилей": 4909,
      "фан": 4910,
      "насколько": 4911,
      "ятно": 4912,
      "ассоциа": 4913,
      "худож": 4914,
      "столкнов": 4915,
      "существо": 4916,
      "законопроект": 4917,
      "желез": 4918,
      "российская": 4919,
      "Goo": 4920,
      "эпи": 4921,
      "острова": 4922,
      "сделали": 4923,
      "Ис": 4924,
      "бель": 4925,
      "договори": 4926,
      "итальян": 4927,
      "пел": 4928,
      "голосов": 4929,
      "договорен": 4930,
      "процен": 4931,
      "чемпион": 4932,
      "Медведев": 4933,
      "циони": 4934,
      "Дени": 4935,
      "ворот": 4936,
      "заверши": 4937,
      "вку": 4938,
      "вернуться": 4939,
      "Первый": 4940,
      "стет": 4941,
      "зербай": 4942,
      "подряд": 4943,
      "НК": 4944,
      "зербайджа": 4945,
      "фей": 4946,
      "президенту": 4947,
      "распоря": 4948,
      "стане": 4949,
      "сезон": 4950,
      "территорию": 4951,
      "выхода": 4952,
      "ауди": 4953,
      "вось": 4954,
      "Исто": 4955,
      "приез": 4956,
      "делает": 4957,
      "Второй": 4958,
      "понен": 4959,
      "добавляет": 4960,
      "курс": 4961,
      "мнения": 4962,
      "щиков": 4963,
      "бесе": 4964,
      "нного": 4965,
      "главе": 4966,
      "украинские": 4967,
      "главное": 4968,
      "сезона": 4969,
      "опа": 4970,
      "Гра": 4971,
      "вскоре": 4972,
      "ad": 4973,
      "Мари": 4974,
      "изобра": 4975,
      "лок": 4976,
      "зоне": 4977,
      "другом": 4978,
      "музыка": 4979,
      "ru": 4980,
      "gram": 4981,
      "Чу": 4982,
      "американский": 4983,
      "пустили": 4984,
      "эфи": 4985,
      "осужден": 4986,
      "Зем": 4987,
      "значительно": 4988,
      "нашли": 4989,
      "главного": 4990,
      "перспекти": 4991,
      "другу": 4992,
      "чена": 4993,
      "конец": 4994,
      "кель": 4995,
      "покуп": 4996,
      "олимпий": 4997,
      "организаций": 4998,
      "ческом": 4999,
      "автома": 5000,
      "летняя": 5001,
      "вспомина": 5002,
      "деление": 5003,
      "нашего": 5004,
      "оборот": 5005,
      "мены": 5006,
      "войск": 5007,
      "объясняет": 5008,
      "новую": 5009,
      "ремон": 5010,
      "гать": 5011,
      "Кали": 5012,
      "актри": 5013,
      "ланд": 5014,
      "удовлет": 5015,
      "эр": 5016,
      "ov": 5017,
      "народа": 5018,
      "режиссер": 5019,
      "Министер": 5020,
      "Республи": 5021,
      "400": 5022,
      "ссию": 5023,
      "отказыва": 5024,
      "размере": 5025,
      "имен": 5026,
      "Google": 5027,
      "колонии": 5028,
      "культур": 5029,
      "инфраструк": 5030,
      "форм": 5031,
      "директо": 5032,
      "коле": 5033,
      "экспери": 5034,
      "команд": 5035,
      "моря": 5036,
      "прибли": 5037,
      "сожал": 5038,
      "Рей": 5039,
      "япон": 5040,
      "посвящен": 5041,
      "взрыв": 5042,
      "основе": 5043,
      "двумя": 5044,
      "ближайшее": 5045,
      "эки": 5046,
      "страхо": 5047,
      "ждений": 5048,
      "сеть": 5049,
      "днем": 5050,
      "меж": 5051,
      "тивного": 5052,
      "религи": 5053,
      "шенных": 5054,
      "глоба": 5055,
      "космо": 5056,
      "сожалению": 5057,
      "общей": 5058,
      "сложи": 5059,
      "государств": 5060,
      "ail": 5061,
      "впечат": 5062,
      "церемо": 5063,
      "следствие": 5064,
      "ay": 5065,
      "предложения": 5066,
      "пото": 5067,
      "вшегося": 5068,
      "Джа": 5069,
      "Кер": 5070,
      "ia": 5071,
      "секу": 5072,
      "дум": 5073,
      "мигрантов": 5074,
      "запрет": 5075,
      "дороги": 5076,
      "фун": 5077,
      "37": 5078,
      "каким": 5079,
      "мужчин": 5080,
      "Ее": 5081,
      "хотели": 5082,
      "провели": 5083,
      "воспи": 5084,
      "множе": 5085,
      "лым": 5086,
      "памят": 5087,
      "ущер": 5088,
      "соли": 5089,
      "собесед": 5090,
      "награ": 5091,
      "писал": 5092,
      "радио": 5093,
      "председателя": 5094,
      "поро": 5095,
      "выступления": 5096,
      "порядке": 5097,
      "шку": 5098,
      "арен": 5099,
      "строительство": 5100,
      "самостоя": 5101,
      "Помимо": 5102,
      "коали": 5103,
      "актер": 5104,
      "считать": 5105,
      "ракеты": 5106,
      "правля": 5107,
      "друзья": 5108,
      "серва": 5109,
      "отда": 5110,
      "январе": 5111,
      "деше": 5112,
      "перио": 5113,
      "био": 5114,
      "заинтересо": 5115,
      "шести": 5116,
      "цена": 5117,
      "оказалась": 5118,
      "собирается": 5119,
      "едини": 5120,
      "труда": 5121,
      "пересе": 5122,
      "шаг": 5123,
      "предложение": 5124,
      "указыва": 5125,
      "смотрен": 5126,
      "европейских": 5127,
      "серии": 5128,
      "выез": 5129,
      "ноябре": 5130,
      "марш": 5131,
      "отличие": 5132,
      "меч": 5133,
      "Конститу": 5134,
      "Дина": 5135,
      "»)": 5136,
      "большую": 5137,
      "тика": 5138,
      "фаль": 5139,
      "прием": 5140,
      "ГИ": 5141,
      "исполнитель": 5142,
      "прошли": 5143,
      "вела": 5144,
      "изра": 5145,
      "каждого": 5146,
      "Свет": 5147,
      "Лав": 5148,
      "VI": 5149,
      "рассмотр": 5150,
      "столицы": 5151,
      "привести": 5152,
      "отчет": 5153,
      "повре": 5154,
      "глубо": 5155,
      "госпи": 5156,
      "препара": 5157,
      "Вашингтон": 5158,
      "примеру": 5159,
      "потенциаль": 5160,
      "инстру": 5161,
      "режиссе": 5162,
      "чений": 5163,
      "разные": 5164,
      "позволяет": 5165,
      "сда": 5166,
      "музыкан": 5167,
      "последствии": 5168,
      "кле": 5169,
      "щений": 5170,
      "тические": 5171,
      "ехал": 5172,
      "израиль": 5173,
      "документов": 5174,
      "неожидан": 5175,
      "рована": 5176,
      "главным": 5177,
      "участники": 5178,
      "департамента": 5179,
      "местные": 5180,
      "начи": 5181,
      "март": 5182,
      "проводить": 5183,
      "тое": 5184,
      "Песков": 5185,
      "инфек": 5186,
      "созна": 5187,
      "регистра": 5188,
      "исследований": 5189,
      "теры": 5190,
      "очевид": 5191,
      "ссив": 5192,
      "вероятно": 5193,
      "феврале": 5194,
      "удиви": 5195,
      "СП": 5196,
      "вопросов": 5197,
      "международных": 5198,
      "члены": 5199,
      "ограничения": 5200,
      "политику": 5201,
      "экономического": 5202,
      "артист": 5203,
      "поправ": 5204,
      "бежен": 5205,
      "экстреми": 5206,
      "строительства": 5207,
      "объем": 5208,
      "церкви": 5209,
      "Ху": 5210,
      "умень": 5211,
      "большим": 5212,
      "ведет": 5213,
      "рассказали": 5214,
      "брали": 5215,
      "ЦСКА": 5216,
      "шествия": 5217,
      "помним": 5218,
      "сезоне": 5219,
      "нан": 5220,
      "ТП": 5221,
      "правило": 5222,
      "ресто": 5223,
      "брал": 5224,
      "РА": 5225,
      "топли": 5226,
      "большое": 5227,
      "нений": 5228,
      "Кур": 5229,
      "решен": 5230,
      "Крыму": 5231,
      "ужа": 5232,
      "нении": 5233,
      "Вен": 5234,
      "Мария": 5235,
      "разве": 5236,
      "боя": 5237,
      "теря": 5238,
      "последова": 5239,
      "мусуль": 5240,
      "политического": 5241,
      "зацию": 5242,
      "пережи": 5243,
      "республикан": 5244,
      "начать": 5245,
      "пришел": 5246,
      "взро": 5247,
      "утром": 5248,
      "порту": 5249,
      "номер": 5250,
      "комна": 5251,
      "льному": 5252,
      "развитие": 5253,
      "Татья": 5254,
      "отметили": 5255,
      "первое": 5256,
      "of": 5257,
      "Лондоне": 5258,
      "обстре": 5259,
      "взять": 5260,
      "учеб": 5261,
      "моск": 5262,
      "идти": 5263,
      "онлайн": 5264,
      "поясни": 5265,
      "дере": 5266,
      "ленной": 5267,
      "Северной": 5268,
      "ходили": 5269,
      "подобные": 5270,
      "Люди": 5271,
      "мыс": 5272,
      "Киева": 5273,
      "успеш": 5274,
      "неизвест": 5275,
      "министерства": 5276,
      "пройдет": 5277,
      "шай": 5278,
      "пожар": 5279,
      "ляет": 5280,
      "появились": 5281,
      "Наталь": 5282,
      "главных": 5283,
      "Московской": 5284,
      "Причем": 5285,
      "вычай": 5286,
      "иногда": 5287,
      "атмо": 5288,
      "въ": 5289,
      "споко": 5290,
      "влений": 5291,
      "зал": 5292,
      "внутренних": 5293,
      "Госу": 5294,
      "хом": 5295,
      "Обама": 5296,
      "Ши": 5297,
      "Возможно": 5298,
      "знают": 5299,
      "мони": 5300,
      "ian": 5301,
      "рт": 5302,
      "крови": 5303,
      "посети": 5304,
      "национали": 5305,
      "терак": 5306,
      "одер": 5307,
      "политике": 5308,
      "несен": 5309,
      "кандидатов": 5310,
      "управление": 5311,
      "Ос": 5312,
      "позиция": 5313,
      "заниматься": 5314,
      "газеты": 5315,
      "провока": 5316,
      "тка": 5317,
      "степени": 5318,
      "Анато": 5319,
      "редко": 5320,
      "виттере": 5321,
      "Здесь": 5322,
      "новое": 5323,
      "предусматри": 5324,
      "станавли": 5325,
      "никакого": 5326,
      "пило": 5327,
      "работали": 5328,
      "зировать": 5329,
      "заплани": 5330,
      "команде": 5331,
      "Павел": 5332,
      "едино": 5333,
      "пошли": 5334,
      "дила": 5335,
      "процесса": 5336,
      "введен": 5337,
      "встречу": 5338,
      "лл": 5339,
      "раскры": 5340,
      "инициати": 5341,
      "возрасте": 5342,
      "предприятия": 5343,
      "тории": 5344,
      "пытается": 5345,
      "оке": 5346,
      "глаза": 5347,
      "семи": 5348,
      "Кан": 5349,
      "фрак": 5350,
      "официальный": 5351,
      "путь": 5352,
      "ДНР": 5353,
      "регионах": 5354,
      "Накануне": 5355,
      "Власти": 5356,
      "нападения": 5357,
      "Дей": 5358,
      "следователи": 5359,
      "квали": 5360,
      "плу": 5361,
      "разбира": 5362,
      "произошед": 5363,
      "чемпионате": 5364,
      "заме": 5365,
      "вышли": 5366,
      "кредит": 5367,
      "программу": 5368,
      "Государ": 5369,
      "северо": 5370,
      "ого": 5371,
      "трас": 5372,
      "Евросоюза": 5373,
      "эксперти": 5374,
      "сигна": 5375,
      "СЕ": 5376,
      "Брю": 5377,
      "Сочи": 5378,
      "выдви": 5379,
      "терна": 5380,
      "Гон": 5381,
      "вещи": 5382,
      "обнаружили": 5383,
      "опровер": 5384,
      "нос": 5385,
      "октябре": 5386,
      "возника": 5387,
      "августе": 5388,
      "психологи": 5389,
      "делам": 5390,
      "пытаются": 5391,
      "июне": 5392,
      "Италии": 5393,
      "зоны": 5394,
      "программе": 5395,
      "Офи": 5396,
      "смотри": 5397,
      "ясно": 5398,
      "пообещал": 5399,
      "Эксперты": 5400,
      "справедли": 5401,
      "ЧС": 5402,
      "?»": 5403,
      "класс": 5404,
      "фана": 5405,
      "исче": 5406,
      "тяжело": 5407,
      "возвраща": 5408,
      "женных": 5409,
      "33": 5410,
      "Фи": 5411,
      "допин": 5412,
      "летней": 5413,
      "социальной": 5414,
      "Ир": 5415,
      "украинский": 5416,
      "сын": 5417,
      "чики": 5418,
      "иначе": 5419,
      "сток": 5420,
      "дри": 5421,
      "стры": 5422,
      "тации": 5423,
      "налого": 5424,
      "Стра": 5425,
      "такую": 5426,
      "специалисты": 5427,
      "днее": 5428,
      "руя": 5429,
      "предвыбор": 5430,
      "есте": 5431,
      "резко": 5432,
      "систем": 5433,
      "числа": 5434,
      "Тимошенко": 5435,
      "зале": 5436,
      "прото": 5437,
      "чрезвычай": 5438,
      "Коми": 5439,
      "ation": 5440,
      "домой": 5441,
      "симво": 5442,
      "думать": 5443,
      "Рас": 5444,
      "последствия": 5445,
      "тельности": 5446,
      "проходит": 5447,
      "гры": 5448,
      "недав": 5449,
      "многочис": 5450,
      "певи": 5451,
      "Леони": 5452,
      "экипа": 5453,
      "государственной": 5454,
      "таком": 5455,
      "уз": 5456,
      "Напомним": 5457,
      "миром": 5458,
      "вариант": 5459,
      "мого": 5460,
      "Интерфак": 5461,
      "сутки": 5462,
      "тео": 5463,
      "Лит": 5464,
      "должность": 5465,
      "боли": 5466,
      "вроде": 5467,
      "Меркель": 5468,
      "программа": 5469,
      "подтвердил": 5470,
      "ИК": 5471,
      "вшую": 5472,
      "другого": 5473,
      "крупных": 5474,
      "рака": 5475,
      "источники": 5476,
      "Бен": 5477,
      "должности": 5478,
      "цах": 5479,
      "парати": 5480,
      "рее": 5481,
      "Прави": 5482,
      "позволит": 5483,
      "отсутствие": 5484,
      "предоста": 5485,
      "Ат": 5486,
      "лян": 5487,
      "ходу": 5488,
      "рубля": 5489,
      "тела": 5490,
      "правильно": 5491,
      "связано": 5492,
      "реб": 5493,
      "Ислам": 5494,
      "лекар": 5495,
      "пройти": 5496,
      "рук": 5497,
      "опти": 5498,
      "36": 5499,
      "Пла": 5500,
      "сем": 5501,
      "провозгла": 5502,
      "лина": 5503,
      "отец": 5504,
      "продажи": 5505,
      "обеспечить": 5506,
      "живет": 5507,
      "Через": 5508,
      "Бла": 5509,
      "Пол": 5510,
      "ig": 5511,
      "опла": 5512,
      "ваем": 5513,
      "чев": 5514,
      "здоровья": 5515,
      "РУ": 5516,
      "щенко": 5517,
      "движи": 5518,
      "дьми": 5519,
      "проектов": 5520,
      "испы": 5521,
      "КП": 5522,
      "ard": 5523,
      "настолько": 5524,
      "буква": 5525,
      "механиз": 5526,
      "Фор": 5527,
      "проголосо": 5528,
      "влению": 5529,
      "добиться": 5530,
      "млад": 5531,
      "Большо": 5532,
      "наконец": 5533,
      "сохран": 5534,
      "Байден": 5535,
      "МС": 5536,
      "кологи": 5537,
      "жесто": 5538,
      "турнира": 5539,
      "Нам": 5540,
      "внимания": 5541,
      "уме": 5542,
      "аф": 5543,
      "существу": 5544,
      "появилась": 5545,
      "Три": 5546,
      "неуда": 5547,
      "влияние": 5548,
      "спектак": 5549,
      "жки": 5550,
      "ходом": 5551,
      "нера": 5552,
      "лье": 5553,
      "пить": 5554,
      "ухуд": 5555,
      "слово": 5556,
      "контроля": 5557,
      "Русской": 5558,
      "десять": 5559,
      "чал": 5560,
      "ционно": 5561,
      "дочь": 5562,
      "пенса": 5563,
      "доброво": 5564,
      "депутаты": 5565,
      "восемь": 5566,
      "рождения": 5567,
      "моно": 5568,
      "ЦБ": 5569,
      "отношениях": 5570,
      "странами": 5571,
      "подъ": 5572,
      "рубеж": 5573,
      "июле": 5574,
      "мужчины": 5575,
      "здоро": 5576,
      "сотни": 5577,
      "носи": 5578,
      "рекорд": 5579,
      "зав": 5580,
      "Бли": 5581,
      "людьми": 5582,
      "Потому": 5583,
      "горя": 5584,
      "теров": 5585,
      "пари": 5586,
      "принадлежа": 5587,
      "документ": 5588,
      "намерен": 5589,
      "свер": 5590,
      "чали": 5591,
      "тельстве": 5592,
      "Сол": 5593,
      "краси": 5594,
      "техники": 5595,
      "воде": 5596,
      "Дума": 5597,
      "тием": 5598,
      "убийство": 5599,
      "Побе": 5600,
      "отка": 5601,
      "ut": 5602,
      "машин": 5603,
      "партнер": 5604,
      "сульта": 5605,
      "пры": 5606,
      "Институ": 5607,
      "Фили": 5608,
      "дне": 5609,
      "прошед": 5610,
      "пропаган": 5611,
      "чают": 5612,
      "лана": 5613,
      "пустил": 5614,
      "ТАСС": 5615,
      "крым": 5616,
      "Динамо": 5617,
      "предела": 5618,
      "прош": 5619,
      "непосред": 5620,
      "грузо": 5621,
      "правоохранительных": 5622,
      "исключительно": 5623,
      "языке": 5624,
      "ваку": 5625,
      "чили": 5626,
      "ДТП": 5627,
      "исполни": 5628,
      "уголовного": 5629,
      "стен": 5630,
      "своему": 5631,
      "группе": 5632,
      "попал": 5633,
      "and": 5634,
      "тельном": 5635,
      "бороться": 5636,
      "находился": 5637,
      "Южной": 5638,
      "эфире": 5639,
      "зависимости": 5640,
      "сада": 5641,
      "Навального": 5642,
      "вину": 5643,
      "пытались": 5644,
      "новая": 5645,
      "Арм": 5646,
      "ближайшие": 5647,
      "паль": 5648,
      "оскор": 5649,
      "тировать": 5650,
      "объяснил": 5651,
      "пои": 5652,
      "Затем": 5653,
      "знакоми": 5654,
      "бели": 5655,
      "делега": 5656,
      "компенса": 5657,
      "чными": 5658,
      "системе": 5659,
      "задержали": 5660,
      "кл": 5661,
      "отметила": 5662,
      "полагает": 5663,
      "миллиона": 5664,
      "производство": 5665,
      "сепарати": 5666,
      "причин": 5667,
      "Еги": 5668,
      "участием": 5669,
      "связь": 5670,
      "поря": 5671,
      "Клин": 5672,
      "хам": 5673,
      "Сте": 5674,
      "недоста": 5675,
      "фикации": 5676,
      "класси": 5677,
      "препят": 5678,
      "прошел": 5679,
      "ьев": 5680,
      "розы": 5681,
      "избирателей": 5682,
      "взгляд": 5683,
      "урегули": 5684,
      "рец": 5685,
      "вец": 5686,
      "постепен": 5687,
      "Лиги": 5688,
      "Алексея": 5689,
      "различных": 5690,
      "влено": 5691,
      "Мен": 5692,
      "рачи": 5693,
      "хан": 5694,
      "заседания": 5695,
      "32": 5696,
      "требует": 5697,
      "напомнил": 5698,
      "Японии": 5699,
      "участвовать": 5700,
      "какое": 5701,
      "перво": 5702,
      "эли": 5703,
      "ленного": 5704,
      "служб": 5705,
      "Ирана": 5706,
      "2007": 5707,
      "тебя": 5708,
      "верто": 5709,
      "стороне": 5710,
      "Иван": 5711,
      "наша": 5712,
      "тете": 5713,
      "сути": 5714,
      "сына": 5715,
      "возраста": 5716,
      "типа": 5717,
      "отрас": 5718,
      "общего": 5719,
      "Ря": 5720,
      "хар": 5721,
      "ВО": 5722,
      "ющиеся": 5723,
      "попытки": 5724,
      "граждане": 5725,
      "ub": 5726,
      "смарт": 5727,
      "корей": 5728,
      "нрави": 5729,
      "несли": 5730,
      "протесту": 5731,
      "йдут": 5732,
      "сва": 5733,
      "моей": 5734,
      "гает": 5735,
      "резер": 5736,
      "случаях": 5737,
      "ческими": 5738,
      "ЗО": 5739,
      "супер": 5740,
      "угрозы": 5741,
      "Бра": 5742,
      "отвер": 5743,
      "Кстати": 5744,
      "явно": 5745,
      "проверки": 5746,
      "кора": 5747,
      "шими": 5748,
      "щает": 5749,
      "вшейся": 5750,
      "возглавля": 5751,
      "задача": 5752,
      "com": 5753,
      "начально": 5754,
      "семье": 5755,
      "игроков": 5756,
      "трибу": 5757,
      "стоят": 5758,
      "Смо": 5759,
      "пова": 5760,
      "планирует": 5761,
      "тую": 5762,
      "ДД": 5763,
      "Зеленский": 5764,
      "Дональда": 5765,
      "фла": 5766,
      "коль": 5767,
      "шах": 5768,
      "смерть": 5769,
      "выглядит": 5770,
      "Спе": 5771,
      "чемпионов": 5772,
      "недвижи": 5773,
      "отметить": 5774,
      "преми": 5775,
      "работки": 5776,
      "берг": 5777,
      "инди": 5778,
      "Красно": 5779,
      "рованные": 5780,
      "НДР": 5781,
      "статус": 5782,
      "Ян": 5783,
      "Петербурге": 5784,
      "путем": 5785,
      "выступил": 5786,
      "стоится": 5787,
      "КНДР": 5788,
      "38": 5789,
      "телефо": 5790,
      "Премь": 5791,
      "село": 5792,
      "нский": 5793,
      "ляцию": 5794,
      "34": 5795,
      "вина": 5796,
      "тила": 5797,
      "считаю": 5798,
      "сбо": 5799,
      "исте": 5800,
      "судья": 5801,
      "жено": 5802,
      "Ники": 5803,
      "МО": 5804,
      "ждено": 5805,
      "фотографии": 5806,
      "испыты": 5807,
      "Министр": 5808,
      "Re": 5809,
      "домо": 5810,
      "чиновники": 5811,
      "мошен": 5812,
      "Путиным": 5813,
      "рг": 5814,
      "стары": 5815,
      "стю": 5816,
      "Дмитрия": 5817,
      "Чем": 5818,
      "идут": 5819,
      "показания": 5820,
      "зависит": 5821,
      "Полу": 5822,
      "продемонстри": 5823,
      "состоится": 5824,
      "риев": 5825,
      "сотрудник": 5826,
      "брь": 5827,
      "55": 5828,
      "Олимпий": 5829,
      "интересы": 5830,
      "топ": 5831,
      "Елена": 5832,
      "вело": 5833,
      "предстоя": 5834,
      "желание": 5835,
      "преследова": 5836,
      "серьезно": 5837,
      "CO": 5838,
      "представителя": 5839,
      "зий": 5840,
      "ченный": 5841,
      "стных": 5842,
      "найден": 5843,
      "всё": 5844,
      "религиоз": 5845,
      "одновременно": 5846,
      "телевид": 5847,
      "Одна": 5848,
      "испан": 5849,
      "АО": 5850,
      "причаст": 5851,
      "Израиля": 5852,
      "твра": 5853,
      "бывает": 5854,
      "среднем": 5855,
      "наме": 5856,
      "регулярно": 5857,
      "российском": 5858,
      "контракт": 5859,
      "BBC": 5860,
      "фона": 5861,
      "создание": 5862,
      "БК": 5863,
      "прокуратуры": 5864,
      "гия": 5865,
      "расти": 5866,
      "создания": 5867,
      "маршру": 5868,
      "руководства": 5869,
      "правления": 5870,
      "цеп": 5871,
      "Андрея": 5872,
      "будто": 5873,
      "Це": 5874,
      "фло": 5875,
      "Белого": 5876,
      "избежать": 5877,
      "поясня": 5878,
      "Испании": 5879,
      "Кэ": 5880,
      "Оста": 5881,
      "спраши": 5882,
      "Может": 5883,
      "сообщают": 5884,
      "подрост": 5885,
      ".,": 5886,
      "местах": 5887,
      "Вашингто": 5888,
      "другое": 5889,
      "альян": 5890,
      "вки": 5891,
      "уста": 5892,
      "предотвра": 5893,
      "Пен": 5894,
      "международного": 5895,
      "опаса": 5896,
      "потерпе": 5897,
      "остались": 5898,
      "лиги": 5899,
      "записи": 5900,
      "силови": 5901,
      "трудо": 5902,
      "льными": 5903,
      "напоминает": 5904,
      "команди": 5905,
      "ландии": 5906,
      "наказание": 5907,
      "нефте": 5908,
      "допро": 5909,
      "всеми": 5910,
      "продю": 5911,
      "договор": 5912,
      "пенсион": 5913,
      "Потом": 5914,
      "дами": 5915,
      "руководством": 5916,
      "барди": 5917,
      "расходы": 5918,
      "психи": 5919,
      "Ай": 5920,
      "делают": 5921,
      "гресс": 5922,
      "Эн": 5923,
      "корот": 5924,
      "лагер": 5925,
      "тельными": 5926,
      "заболевания": 5927,
      "частли": 5928,
      "выпла": 5929,
      "хождения": 5930,
      "ждают": 5931,
      "отставку": 5932,
      "президентских": 5933,
      "нефтя": 5934,
      "городах": 5935,
      "услуг": 5936,
      "Спу": 5937,
      "модель": 5938,
      "родители": 5939,
      "жене": 5940,
      "лишения": 5941,
      "устро": 5942,
      "Мат": 5943,
      "транспорта": 5944,
      "руководителя": 5945,
      "временно": 5946,
      "ципа": 5947,
      "гал": 5948,
      "чук": 5949,
      "усилия": 5950,
      "одино": 5951,
      "интернете": 5952,
      "тиков": 5953,
      "МА": 5954,
      "пару": 5955,
      "считается": 5956,
      "надзо": 5957,
      "Кремля": 5958,
      "больнице": 5959,
      "риск": 5960,
      "плю": 5961,
      "коллега": 5962,
      "вперед": 5963,
      "отказаться": 5964,
      "вспом": 5965,
      "сова": 5966,
      "холод": 5967,
      "россияне": 5968,
      "могло": 5969,
      "ВД": 5970,
      "мэра": 5971,
      "Можно": 5972,
      "турнир": 5973,
      "реза": 5974,
      "196": 5975,
      "сне": 5976,
      "бюро": 5977,
      "школь": 5978,
      "Шу": 5979,
      "ванных": 5980,
      "купить": 5981,
      "обстоятельства": 5982,
      "учетом": 5983,
      "начальник": 5984,
      "подобных": 5985,
      "предстоит": 5986,
      "веще": 5987,
      "обязательно": 5988,
      "запро": 5989,
      "появился": 5990,
      "монито": 5991,
      "шили": 5992,
      "спас": 5993,
      "сообщение": 5994,
      "цар": 5995,
      "гий": 5996,
      "ag": 5997,
      "гумани": 5998,
      "дерев": 5999,
      "передачи": 6000,
      "СИЗО": 6001,
      "Борис": 6002,
      "Луган": 6003,
      "Подмосков": 6004,
      "2000": 6005,
      "мато": 6006,
      "фильме": 6007,
      "крат": 6008,
      "жизнен": 6009,
      "причина": 6010,
      "разы": 6011,
      "мане": 6012,
      "животных": 6013,
      "Ким": 6014,
      "работала": 6015,
      "врачи": 6016,
      "пассажиров": 6017,
      "общем": 6018,
      "корреспонден": 6019,
      "дим": 6020,
      "приговор": 6021,
      "посту": 6022,
      "Зени": 6023,
      "прокурор": 6024,
      "прокуратура": 6025,
      "концов": 6026,
      "держать": 6027,
      "провин": 6028,
      "тический": 6029,
      "справи": 6030,
      "счетом": 6031,
      "объектов": 6032,
      "Сен": 6033,
      "призыва": 6034,
      "президенты": 6035,
      "объедин": 6036,
      "Авто": 6037,
      "197": 6038,
      "вызывает": 6039,
      "эксплу": 6040,
      "границу": 6041,
      "моти": 6042,
      "вав": 6043,
      "очков": 6044,
      "пытался": 6045,
      "Минобороны": 6046,
      "земли": 6047,
      "диску": 6048,
      "нена": 6049,
      "времена": 6050,
      "рение": 6051,
      "матчей": 6052,
      "произошла": 6053,
      "предмет": 6054,
      "применя": 6055,
      "представляет": 6056,
      "молодых": 6057,
      "Венесу": 6058,
      "больницу": 6059,
      "письмо": 6060,
      "жертв": 6061,
      "класса": 6062,
      "ИГ": 6063,
      "Англии": 6064,
      "Бол": 6065,
      "Российский": 6066,
      "международной": 6067,
      "церков": 6068,
      "Компа": 6069,
      "лицо": 6070,
      "режиме": 6071,
      "Украиной": 6072,
      "News": 6073,
      "минима": 6074,
      "начало": 6075,
      "демонстра": 6076,
      "сюда": 6077,
      "декс": 6078,
      "останется": 6079,
      "нской": 6080,
      "родителей": 6081,
      "ассоциации": 6082,
      "уверены": 6083,
      "корреспондент": 6084,
      "спут": 6085,
      "тенни": 6086,
      "политические": 6087,
      "сятся": 6088,
      "предоставля": 6089,
      "Адвока": 6090,
      "аналитик": 6091,
      "полито": 6092,
      "семья": 6093,
      "любом": 6094,
      "муниципа": 6095,
      "человеком": 6096,
      "хокке": 6097,
      "ur": 6098,
      "игре": 6099,
      "руках": 6100,
      "Кана": 6101,
      "едва": 6102,
      "Вар": 6103,
      "чке": 6104,
      "чера": 6105,
      "казалось": 6106,
      "началась": 6107,
      "недоволь": 6108,
      "автомобиля": 6109,
      "44": 6110,
      "ввести": 6111,
      "ствовала": 6112,
      "проз": 6113,
      "Госду": 6114,
      "дят": 6115,
      "консульта": 6116,
      "МЧС": 6117,
      "главной": 6118,
      "тело": 6119,
      "ходил": 6120,
      "третий": 6121,
      "лежа": 6122,
      "назвать": 6123,
      "Уиль": 6124,
      "циям": 6125,
      "Рабо": 6126,
      "Запа": 6127,
      "двор": 6128,
      "Ольга": 6129,
      "отдыха": 6130,
      "писать": 6131,
      "Позже": 6132,
      "БР": 6133,
      "шев": 6134,
      "остановить": 6135,
      "обмен": 6136,
      "осталось": 6137,
      "прие": 6138,
      "воспользо": 6139,
      "поклон": 6140,
      "аварии": 6141,
      "иран": 6142,
      "защитник": 6143,
      "написала": 6144,
      "лева": 6145,
      "избран": 6146,
      "Кубка": 6147,
      "контрак": 6148,
      "клон": 6149,
      "заслу": 6150,
      "Азербайджа": 6151,
      "Жен": 6152,
      "заседание": 6153,
      "продли": 6154,
      "старто": 6155,
      "домов": 6156,
      "стойчи": 6157,
      "буквально": 6158,
      "ровании": 6159,
      "кали": 6160,
      "щему": 6161,
      "оппозиционе": 6162,
      "предпо": 6163,
      "изменить": 6164,
      "соответственно": 6165,
      "профессор": 6166,
      "альтерна": 6167,
      "выстав": 6168,
      "кафе": 6169,
      "борту": 6170,
      "лиш": 6171,
      "полицейских": 6172,
      "гин": 6173,
      "истре": 6174,
      "луй": 6175,
      "енти": 6176,
      "продукции": 6177,
      "бизнесмен": 6178,
      "Без": 6179,
      "рованной": 6180,
      "автомобиль": 6181,
      "сбу": 6182,
      "Основ": 6183,
      "квартиры": 6184,
      "нью": 6185,
      "эваку": 6186,
      "обнаро": 6187,
      "Фон": 6188,
      "ровка": 6189,
      "зой": 6190,
      "вай": 6191,
      "умышлен": 6192,
      "десятки": 6193,
      "Премьер": 6194,
      "Соб": 6195,
      "столкну": 6196,
      "технологий": 6197,
      "ТВ": 6198,
      "противоречи": 6199,
      "показали": 6200,
      "заключения": 6201,
      "гостей": 6202,
      "водить": 6203,
      "условий": 6204,
      "дах": 6205,
      "увидеть": 6206,
      "известный": 6207,
      "Скри": 6208,
      "гент": 6209,
      "счета": 6210,
      "Вя": 6211,
      "мут": 6212,
      "вопросу": 6213,
      "данном": 6214,
      "нужны": 6215,
      "соперника": 6216,
      "проекты": 6217,
      "радо": 6218,
      "ствий": 6219,
      "договора": 6220,
      "видим": 6221,
      "сделки": 6222,
      "плен": 6223,
      "лке": 6224,
      "осла": 6225,
      "остаются": 6226,
      "выбира": 6227,
      "проверя": 6228,
      "вышла": 6229,
      "можете": 6230,
      "королев": 6231,
      "ac": 6232,
      "капи": 6233,
      "экономической": 6234,
      "контин": 6235,
      "пандемии": 6236,
      "соблю": 6237,
      "журналисты": 6238,
      "живут": 6239,
      "тиву": 6240,
      "шпи": 6241,
      "восстанови": 6242,
      "48": 6243,
      "завери": 6244,
      "ковых": 6245,
      "литера": 6246,
      "назвали": 6247,
      "изуча": 6248,
      "тыми": 6249,
      "дорож": 6250,
      "изви": 6251,
      "Всемир": 6252,
      "Шве": 6253,
      "нашу": 6254,
      "балан": 6255,
      "десятилети": 6256,
      "Речь": 6257,
      "имел": 6258,
      "вру": 6259,
      "попасть": 6260,
      "диск": 6261,
      "шке": 6262,
      "остался": 6263,
      "финансов": 6264,
      "факту": 6265,
      "похоже": 6266,
      "пто": 6267,
      "сайт": 6268,
      "специалистов": 6269,
      "перевоз": 6270,
      "сохранить": 6271,
      "облада": 6272,
      "политик": 6273,
      "Новый": 6274,
      "каран": 6275,
      "сотрудничества": 6276,
      "перене": 6277,
      "честь": 6278,
      "тельству": 6279,
      "ступления": 6280,
      "убийстве": 6281,
      "установить": 6282,
      "ьян": 6283,
      "подели": 6284,
      "новом": 6285,
      "больницы": 6286,
      "Викто": 6287,
      "никова": 6288,
      "пациентов": 6289,
      "программ": 6290,
      "Джор": 6291,
      "городской": 6292,
      "серьезные": 6293,
      "опять": 6294,
      "занимается": 6295,
      "выяснилось": 6296,
      "видел": 6297,
      "готова": 6298,
      "обслужи": 6299,
      "сторонников": 6300,
      "школе": 6301,
      "заявлял": 6302,
      "Очень": 6303,
      "потра": 6304,
      "количества": 6305,
      "реализации": 6306,
      "преде": 6307,
      "самолетов": 6308,
      "Витали": 6309,
      "Официаль": 6310,
      "несет": 6311,
      "модели": 6312,
      "консерва": 6313,
      "Казах": 6314,
      "Австра": 6315,
      "Чеч": 6316,
      "Представитель": 6317,
      "дзе": 6318,
      "отреаги": 6319,
      "Бела": 6320,
      "наверное": 6321,
      "отправ": 6322,
      "изъя": 6323,
      "решений": 6324,
      "поднима": 6325,
      "РС": 6326,
      "задержан": 6327,
      "попросил": 6328,
      "трое": 6329,
      "визо": 6330,
      "стую": 6331,
      "Перед": 6332,
      "медленно": 6333,
      "исчез": 6334,
      "продуктов": 6335,
      ".)": 6336,
      "знать": 6337,
      "one": 6338,
      "Сначала": 6339,
      "детьми": 6340,
      "стся": 6341,
      "музе": 6342,
      "последнего": 6343,
      "дважды": 6344,
      "затра": 6345,
      "гуманитар": 6346,
      "150": 6347,
      "доходов": 6348,
      "номина": 6349,
      "генерал": 6350,
      "оты": 6351,
      "Ги": 6352,
      "знаем": 6353,
      "телеканала": 6354,
      "Брюссе": 6355,
      "вдруг": 6356,
      "дефици": 6357,
      "ВС": 6358,
      "змом": 6359,
      "прият": 6360,
      "транспор": 6361,
      "энерго": 6362,
      "шкин": 6363,
      "респон": 6364,
      "автомобили": 6365,
      "шается": 6366,
      "вернулся": 6367,
      "отношению": 6368,
      "первая": 6369,
      "кандидата": 6370,
      "ведомстве": 6371,
      "39": 6372,
      "палаты": 6373,
      "просты": 6374,
      "насилия": 6375,
      "отца": 6376,
      "целе": 6377,
      "представить": 6378,
      "тря": 6379,
      "боевиков": 6380,
      "Ленин": 6381,
      "идея": 6382,
      "рили": 6383,
      "Афгани": 6384,
      "рика": 6385,
      "знал": 6386,
      "вшее": 6387,
      "страш": 6388,
      "границе": 6389,
      "городов": 6390,
      "государственного": 6391,
      "обращение": 6392,
      "тельность": 6393,
      "любов": 6394,
      "больших": 6395,
      "повышение": 6396,
      "комплекс": 6397,
      "up": 6398,
      "Сот": 6399,
      "коллеги": 6400,
      "мель": 6401,
      "стные": 6402,
      "направлении": 6403,
      "мной": 6404,
      "отказались": 6405,
      "характери": 6406,
      "поток": 6407,
      "пове": 6408,
      "!\"": 6409,
      "мониторин": 6410,
      "Род": 6411,
      "очевидно": 6412,
      "прогнози": 6413,
      "Или": 6414,
      "совеща": 6415,
      "лого": 6416,
      "2006": 6417,
      "проблему": 6418,
      "мысли": 6419,
      "емым": 6420,
      "специально": 6421,
      "банки": 6422,
      "изменений": 6423,
      "вооруженных": 6424,
      "ночью": 6425,
      "ъек": 6426,
      "прошла": 6427,
      "лабора": 6428,
      "губернатора": 6429,
      "вшими": 6430,
      "голову": 6431,
      "________": 6432,
      "os": 6433,
      "ждет": 6434,
      "ставит": 6435,
      "никах": 6436,
      "ребенок": 6437,
      "ожидается": 6438,
      "располага": 6439,
      "обвиняют": 6440,
      "Даль": 6441,
      "Иран": 6442,
      "госпитали": 6443,
      "Спа": 6444,
      "нынешнего": 6445,
      "общественного": 6446,
      "жности": 6447,
      "кара": 6448,
      "вере": 6449,
      "ХЛ": 6450,
      "жим": 6451,
      "жо": 6452,
      "завое": 6453,
      "война": 6454,
      "поверх": 6455,
      "счастли": 6456,
      "кции": 6457,
      "комиссия": 6458,
      "гибели": 6459,
      "финале": 6460,
      "поедин": 6461,
      "Голо": 6462,
      "лога": 6463,
      "государственных": 6464,
      "День": 6465,
      "состава": 6466,
      "ментом": 6467,
      "разили": 6468,
      "крайней": 6469,
      "выпуска": 6470,
      "устраи": 6471,
      "показал": 6472,
      "следующем": 6473,
      "Арави": 6474,
      "проведение": 6475,
      "взры": 6476,
      "новил": 6477,
      "уточнил": 6478,
      "твори": 6479,
      "камер": 6480,
      "стабиль": 6481,
      "мова": 6482,
      "Газеты": 6483,
      "коронавирусом": 6484,
      "Саудов": 6485,
      "устройства": 6486,
      "кей": 6487,
      "никакой": 6488,
      "модер": 6489,
      "Макси": 6490,
      "ас": 6491,
      "Надо": 6492,
      "сведения": 6493,
      "предлагает": 6494,
      "Им": 6495,
      "находились": 6496,
      "вайте": 6497,
      "сформи": 6498,
      "разуме": 6499,
      "65": 6500,
      "решила": 6501,
      "Наталья": 6502,
      "пенсионе": 6503,
      "видимо": 6504,
      "звезд": 6505,
      "нки": 6506,
      "Же": 6507,
      "обыгра": 6508,
      "продолжают": 6509,
      "Верховной": 6510,
      "военный": 6511,
      "Максим": 6512,
      "Ах": 6513,
      "сосе": 6514,
      "снижение": 6515,
      "списке": 6516,
      "полков": 6517,
      "язык": 6518,
      "территориаль": 6519,
      "Тай": 6520,
      "декла": 6521,
      "смерт": 6522,
      "составил": 6523,
      "Саака": 6524,
      "закону": 6525,
      "пля": 6526,
      "бомбарди": 6527,
      "минуте": 6528,
      "обеспечения": 6529,
      "VID": 6530,
      "беспоряд": 6531,
      "названием": 6532,
      "рованный": 6533,
      "обратился": 6534,
      "ПР": 6535,
      "Ты": 6536,
      "кем": 6537,
      "цова": 6538,
      "правам": 6539,
      "название": 6540,
      "Саакашвили": 6541,
      "постепенно": 6542,
      "тонн": 6543,
      "чется": 6544,
      "считали": 6545,
      "боевых": 6546,
      "воря": 6547,
      "православ": 6548,
      "Михаила": 6549,
      "просьбой": 6550,
      "кабине": 6551,
      "руются": 6552,
      "замен": 6553,
      "подчи": 6554,
      "шинство": 6555,
      "горе": 6556,
      "отправля": 6557,
      "положительно": 6558,
      "носит": 6559,
      "»:": 6560,
      "осуществля": 6561,
      "Виктора": 6562,
      "рестора": 6563,
      "комментарии": 6564,
      "базе": 6565,
      "лидеры": 6566,
      "группу": 6567,
      "новостями": 6568,
      "вечер": 6569,
      "подозре": 6570,
      "высказа": 6571,
      "вченко": 6572,
      "зарпла": 6573,
      "Иль": 6574,
      "предусмотрен": 6575,
      "уси": 6576,
      "вето": 6577,
      "подготовки": 6578,
      "девушка": 6579,
      "ордина": 6580,
      "шены": 6581,
      "планируется": 6582,
      "зака": 6583,
      "вив": 6584,
      "мета": 6585,
      "шансы": 6586,
      "COVID": 6587,
      "публикации": 6588,
      "вози": 6589,
      "наблюд": 6590,
      "везли": 6591,
      "обстанов": 6592,
      "предполагает": 6593,
      "водо": 6594,
      "планы": 6595,
      "фонд": 6596,
      "технологии": 6597,
      "ваю": 6598,
      "какая": 6599,
      "показать": 6600,
      "вано": 6601,
      "уволь": 6602,
      "фигури": 6603,
      "войне": 6604,
      "занимает": 6605,
      "группировки": 6606,
      "Вален": 6607,
      "забы": 6608,
      "Каза": 6609,
      "заметил": 6610,
      "зме": 6611,
      "щими": 6612,
      "угрозу": 6613,
      "Российские": 6614,
      "подгото": 6615,
      "удастся": 6616,
      "истреби": 6617,
      "повтор": 6618,
      "оправ": 6619,
      "акционе": 6620,
      "оптими": 6621,
      "направи": 6622,
      "настоящий": 6623,
      "назначен": 6624,
      "составит": 6625,
      "стоимости": 6626,
      "ау": 6627,
      "уступи": 6628,
      "либера": 6629,
      "результатов": 6630,
      "сотрудни": 6631,
      "нужда": 6632,
      "Пор": 6633,
      "iP": 6634,
      "атак": 6635,
      "приори": 6636,
      "АР": 6637,
      "будущее": 6638,
      "растет": 6639,
      "Вяче": 6640,
      "самостоятельно": 6641,
      "фов": 6642,
      "критико": 6643,
      "базы": 6644,
      "врач": 6645,
      "особен": 6646,
      "продолж": 6647,
      "признался": 6648,
      "ально": 6649,
      "основной": 6650,
      "соцсетях": 6651,
      "Думаю": 6652,
      "Хан": 6653,
      "влека": 6654,
      "пограни": 6655,
      "убежден": 6656,
      "улицы": 6657,
      "Петра": 6658,
      "происходя": 6659,
      "Филип": 6660,
      "тило": 6661,
      "Руко": 6662,
      "Татьяна": 6663,
      "юго": 6664,
      "Джейм": 6665,
      "услуги": 6666,
      "концу": 6667,
      "кура": 6668,
      "ФИ": 6669,
      "бери": 6670,
      "декса": 6671,
      "немало": 6672,
      "отказ": 6673,
      "безопасность": 6674,
      "зрителей": 6675,
      "политиков": 6676,
      "получения": 6677,
      "гео": 6678,
      "полез": 6679,
      "финал": 6680,
      "рот": 6681,
      "Рай": 6682,
      "разговоре": 6683,
      "тренера": 6684,
      "Син": 6685,
      "выступает": 6686,
      "депутата": 6687,
      "квартире": 6688,
      "начальника": 6689,
      "поставки": 6690,
      "губернатор": 6691,
      "хватает": 6692,
      "порядок": 6693,
      "Анна": 6694,
      "Газпром": 6695,
      "Афри": 6696,
      "показатель": 6697,
      "трево": 6698,
      "хак": 6699,
      "руд": 6700,
      "тивов": 6701,
      "узнать": 6702,
      "iv": 6703,
      "станут": 6704,
      "отмети": 6705,
      "пусть": 6706,
      "носить": 6707,
      "завтра": 6708,
      "наше": 6709,
      "меньшей": 6710,
      "ci": 6711,
      "ущерб": 6712,
      "осторо": 6713,
      "щик": 6714,
      "пострадавших": 6715,
      "тесь": 6716,
      "называет": 6717,
      "щается": 6718,
      "насили": 6719,
      "лондон": 6720,
      "брен": 6721,
      "множество": 6722,
      "особы": 6723,
      "КО": 6724,
      "реформы": 6725,
      "трагедии": 6726,
      "вому": 6727,
      "дев": 6728,
      "Эрдо": 6729,
      "Яро": 6730,
      "гового": 6731,
      "кома": 6732,
      "полной": 6733,
      "гол": 6734,
      "выстре": 6735,
      "самая": 6736,
      "чит": 6737,
      "Само": 6738,
      "защите": 6739,
      "работников": 6740,
      "щены": 6741,
      "читать": 6742,
      "сения": 6743,
      "дому": 6744,
      "граф": 6745,
      "авторы": 6746,
      "тепло": 6747,
      "праведли": 6748,
      "Обще": 6749,
      "учени": 6750,
      "смысле": 6751,
      "хро": 6752,
      "использование": 6753,
      "борьбу": 6754,
      "Sp": 6755,
      "эко": 6756,
      "торговли": 6757,
      "отмен": 6758,
      "подписал": 6759,
      "показывает": 6760,
      "рэ": 6761,
      "стрель": 6762,
      "экономике": 6763,
      "модерни": 6764,
      "Свя": 6765,
      "чества": 6766,
      "удоб": 6767,
      "наоборот": 6768,
      "процессе": 6769,
      "Telegram": 6770,
      "главой": 6771,
      "назначи": 6772,
      "искать": 6773,
      "ГБ": 6774,
      "моя": 6775,
      "рос": 6776,
      "осен": 6777,
      "рованию": 6778,
      "патриар": 6779,
      "Израиль": 6780,
      "?\"": 6781,
      "талан": 6782,
      "возле": 6783,
      "успешно": 6784,
      "книги": 6785,
      "сомне": 6786,
      "съем": 6787,
      "Маг": 6788,
      "ik": 6789,
      "стабили": 6790,
      "щины": 6791,
      "властями": 6792,
      "мусульман": 6793,
      "вшем": 6794,
      "проходят": 6795,
      "российскими": 6796,
      "ай": 6797,
      "красно": 6798,
      "играет": 6799,
      "Тот": 6800,
      "няют": 6801,
      "област": 6802,
      "Сов": 6803,
      "товаров": 6804,
      "чин": 6805,
      "попали": 6806,
      "огня": 6807,
      "ока": 6808,
      "делом": 6809,
      "Суд": 6810,
      "коммуни": 6811,
      "случилось": 6812,
      "доходы": 6813,
      "ционная": 6814,
      "существенно": 6815,
      "стрии": 6816,
      "лями": 6817,
      "получать": 6818,
      "минуты": 6819,
      "ждали": 6820,
      "нации": 6821,
      "сравни": 6822,
      "47": 6823,
      "упо": 6824,
      "Bl": 6825,
      "рье": 6826,
      "Дан": 6827,
      "укреп": 6828,
      "лидером": 6829,
      "рет": 6830,
      "лку": 6831,
      "коронавирус": 6832,
      "кстати": 6833,
      "42": 6834,
      "»),": 6835,
      "начались": 6836,
      "защиту": 6837,
      "хуже": 6838,
      "МВФ": 6839,
      "взрыва": 6840,
      "индивиду": 6841,
      "поможет": 6842,
      "Роман": 6843,
      "прокомментировал": 6844,
      "рабочих": 6845,
      "куро": 6846,
      "Китае": 6847,
      "гран": 6848,
      "пале": 6849,
      "годам": 6850,
      "Мэй": 6851,
      "Евгения": 6852,
      "играл": 6853,
      "прекратить": 6854,
      "эпизо": 6855,
      "препода": 6856,
      "происшествия": 6857,
      "вка": 6858,
      "доход": 6859,
      "вред": 6860,
      "бол": 6861,
      "Представители": 6862,
      "Решение": 6863,
      "преодо": 6864,
      "уника": 6865,
      "отмечается": 6866,
      "шина": 6867,
      "канал": 6868,
      "американцев": 6869,
      "ber": 6870,
      "Мол": 6871,
      "брат": 6872,
      "нула": 6873,
      "большого": 6874,
      "доче": 6875,
      "моро": 6876,
      "зап": 6877,
      "Але": 6878,
      "НИ": 6879,
      "Нача": 6880,
      "Извест": 6881,
      "британского": 6882,
      "прекрас": 6883,
      "Луч": 6884,
      "Оче": 6885,
      "картины": 6886,
      "откров": 6887,
      "блока": 6888,
      "49": 6889,
      "41": 6890,
      "Уни": 6891,
      "нравится": 6892,
      "лить": 6893,
      "щики": 6894,
      "Генера": 6895,
      "знали": 6896,
      "военнослужащих": 6897,
      "Ры": 6898,
      "Анто": 6899,
      "беженцев": 6900,
      "квартиру": 6901,
      "огонь": 6902,
      "возможных": 6903,
      "Института": 6904,
      "расходов": 6905,
      "упомина": 6906,
      "сел": 6907,
      "бург": 6908,
      "молодой": 6909,
      "помимо": 6910,
      "уйти": 6911,
      "резолю": 6912,
      "обнародова": 6913,
      "SA": 6914,
      "покры": 6915,
      "сроки": 6916,
      "инду": 6917,
      "чемпионат": 6918,
      "Америки": 6919,
      "Тор": 6920,
      "соблюд": 6921,
      "полицейские": 6922,
      "атаки": 6923,
      "влением": 6924,
      "общество": 6925,
      "Германия": 6926,
      "For": 6927,
      "леген": 6928,
      "зрева": 6929,
      "большинства": 6930,
      "Право": 6931,
      "экспорт": 6932,
      "ристи": 6933,
      "пребы": 6934,
      "Белару": 6935,
      "оригина": 6936,
      "Зеленского": 6937,
      "коррупции": 6938,
      "ow": 6939,
      "лиза": 6940,
      "прибыли": 6941,
      "инцидента": 6942,
      "пишут": 6943,
      "вторых": 6944,
      "46": 6945,
      "запись": 6946,
      "видели": 6947,
      "правительстве": 6948,
      "ницей": 6949,
      "подру": 6950,
      "грузин": 6951,
      "оппонен": 6952,
      "You": 6953,
      "дополнительные": 6954,
      "клима": 6955,
      "окружа": 6956,
      "ork": 6957,
      "серд": 6958,
      "поддерживает": 6959,
      "спокойно": 6960,
      "тивным": 6961,
      "стской": 6962,
      "министром": 6963,
      "компьютер": 6964,
      "обу": 6965,
      "Ката": 6966,
      "вспы": 6967,
      "чт": 6968,
      "Большинство": 6969,
      "туристов": 6970,
      "Клинтон": 6971,
      "акка": 6972,
      "последу": 6973,
      "ура": 6974,
      "действует": 6975,
      "сложности": 6976,
      "падение": 6977,
      "использования": 6978,
      "Бразили": 6979,
      "слава": 6980,
      "миссии": 6981,
      "введения": 6982,
      "щина": 6983,
      "списка": 6984,
      "какую": 6985,
      "товари": 6986,
      "Ch": 6987,
      "север": 6988,
      "категори": 6989,
      "Виталий": 6990,
      "врача": 6991,
      "нутся": 6992,
      "щихся": 6993,
      "стиму": 6994,
      "Москвой": 6995,
      "Лавров": 6996,
      "ранения": 6997,
      "Ирина": 6998,
      "Моло": 6999,
      "кине": 7000,
      "транзи": 7001,
      "размер": 7002,
      "прока": 7003,
      "шают": 7004,
      "бои": 7005,
      "ряду": 7006,
      "Мю": 7007,
      "парламенте": 7008,
      "Греции": 7009,
      "объявили": 7010,
      "реж": 7011,
      "значение": 7012,
      "няка": 7013,
      "гр": 7014,
      "создании": 7015,
      "виа": 7016,
      "Воло": 7017,
      "думал": 7018,
      "друзей": 7019,
      "менту": 7020,
      "напряжен": 7021,
      "правоохрани": 7022,
      "тным": 7023,
      "принятия": 7024,
      "впоследствии": 7025,
      "расту": 7026,
      "положения": 7027,
      "арест": 7028,
      "Польши": 7029,
      "тенден": 7030,
      "Бал": 7031,
      "министров": 7032,
      "смогла": 7033,
      "ус": 7034,
      "стрее": 7035,
      "выру": 7036,
      "ведут": 7037,
      "можен": 7038,
      "титу": 7039,
      "покинуть": 7040,
      "Мон": 7041,
      "входит": 7042,
      "поведение": 7043,
      "разобра": 7044,
      "болезни": 7045,
      "de": 7046,
      "ОБ": 7047,
      "стка": 7048,
      "ПЦ": 7049,
      "компро": 7050,
      "плей": 7051,
      "везда": 7052,
      "неизвестно": 7053,
      "леги": 7054,
      "ap": 7055,
      "давать": 7056,
      "двер": 7057,
      "снять": 7058,
      "хии": 7059,
      "продукты": 7060,
      "нашим": 7061,
      "пойти": 7062,
      "режиссера": 7063,
      "привет": 7064,
      "объеди": 7065,
      "шанс": 7066,
      "Владимиром": 7067,
      "вающих": 7068,
      "премии": 7069,
      "жная": 7070,
      "руку": 7071,
      "достав": 7072,
      "Тут": 7073,
      "штата": 7074,
      "Савченко": 7075,
      "предоставить": 7076,
      "нелега": 7077,
      "летел": 7078,
      "грозит": 7079,
      "доля": 7080,
      "броса": 7081,
      "изначально": 7082,
      "ехали": 7083,
      "интегра": 7084,
      "продолжать": 7085,
      "взрослы": 7086,
      "хотим": 7087,
      "гиган": 7088,
      "мои": 7089,
      "Навальный": 7090,
      "этапе": 7091,
      "внешне": 7092,
      "получит": 7093,
      "британской": 7094,
      "уг": 7095,
      "окончания": 7096,
      "поддержке": 7097,
      "решением": 7098,
      "влены": 7099,
      "верить": 7100,
      "Европу": 7101,
      "опо": 7102,
      "Спар": 7103,
      "остальные": 7104,
      "рано": 7105,
      "полтора": 7106,
      "мм": 7107,
      "ждению": 7108,
      "болельщиков": 7109,
      "большей": 7110,
      "свободу": 7111,
      "хол": 7112,
      "жая": 7113,
      "нала": 7114,
      "новения": 7115,
      "Бывший": 7116,
      "впрочем": 7117,
      "повышен": 7118,
      "Кады": 7119,
      "похоро": 7120,
      "Собя": 7121,
      "вынуждены": 7122,
      "делить": 7123,
      "2004": 7124,
      "ложи": 7125,
      "лн": 7126,
      "Золо": 7127,
      "периода": 7128,
      "Оте": 7129,
      "Геор": 7130,
      "заби": 7131,
      "блок": 7132,
      "одному": 7133,
      "рекоменда": 7134,
      "Лидер": 7135,
      "писали": 7136,
      "мню": 7137,
      "арби": 7138,
      "визита": 7139,
      "каждой": 7140,
      "четверть": 7141,
      "вшему": 7142,
      "устанавли": 7143,
      "ребя": 7144,
      "эксплуата": 7145,
      "цвета": 7146,
      "воспринима": 7147,
      "самопровозгла": 7148,
      "нского": 7149,
      "сумма": 7150,
      "сопротив": 7151,
      "начался": 7152,
      "гресса": 7153,
      "связаны": 7154,
      "путеше": 7155,
      "сообщается": 7156,
      "область": 7157,
      "финала": 7158,
      "ллек": 7159,
      "кори": 7160,
      "трлн": 7161,
      "срока": 7162,
      "девушки": 7163,
      "Путину": 7164,
      "качества": 7165,
      "каком": 7166,
      "Сама": 7167,
      "Антон": 7168,
      "мэр": 7169,
      "местного": 7170,
      "числен": 7171,
      "Асада": 7172,
      "кандидат": 7173,
      "ориенти": 7174,
      "искусства": 7175,
      "адре": 7176,
      "Лондона": 7177,
      "причины": 7178,
      "летних": 7179,
      "коллег": 7180,
      "43": 7181,
      "000": 7182,
      "получают": 7183,
      "Валерий": 7184,
      "прокурора": 7185,
      "полномочий": 7186,
      "инцидент": 7187,
      "хен": 7188,
      "гряз": 7189,
      "соци": 7190,
      "Миро": 7191,
      "массовых": 7192,
      "обязанности": 7193,
      "мечта": 7194,
      "заранее": 7195,
      "Григо": 7196,
      "сборная": 7197,
      "Такие": 7198,
      "заставля": 7199,
      "лланд": 7200,
      "сви": 7201,
      "составила": 7202,
      "инвали": 7203,
      "врачей": 7204,
      "взял": 7205,
      "футбола": 7206,
      "электри": 7207,
      "Стив": 7208,
      "решать": 7209,
      "Компания": 7210,
      "отдел": 7211,
      "дентов": 7212,
      "будущего": 7213,
      "девять": 7214,
      "Вашингтона": 7215,
      "улы": 7216,
      "госпо": 7217,
      "пес": 7218,
      "распре": 7219,
      "политический": 7220,
      "оказаться": 7221,
      "Народ": 7222,
      "машину": 7223,
      "ванные": 7224,
      "Пав": 7225,
      "Лат": 7226,
      "Фин": 7227,
      "Коло": 7228,
      "заблоки": 7229,
      "мона": 7230,
      "игр": 7231,
      "говорилось": 7232,
      "привлечь": 7233,
      "ОП": 7234,
      "СА": 7235,
      "сив": 7236,
      "ходатай": 7237,
      "полном": 7238,
      "обоснова": 7239,
      "атмосфер": 7240,
      "Запада": 7241,
      "Королев": 7242,
      "восьми": 7243,
      "института": 7244,
      "тился": 7245,
      "Органи": 7246,
      "табли": 7247,
      "талия": 7248,
      "Нидер": 7249,
      "Бор": 7250,
      "собственной": 7251,
      "вопросом": 7252,
      "столкновения": 7253,
      "мастер": 7254,
      "тельством": 7255,
      "нная": 7256,
      "зали": 7257,
      "лицен": 7258,
      "вопроса": 7259,
      "приняла": 7260,
      "досро": 7261,
      "2005": 7262,
      "травмы": 7263,
      "такими": 7264,
      "убеди": 7265,
      "граду": 7266,
      "групп": 7267,
      "зия": 7268,
      "канчи": 7269,
      "концеп": 7270,
      "присоедини": 7271,
      "коммуника": 7272,
      "няться": 7273,
      "Ль": 7274,
      "Обамы": 7275,
      "Медведева": 7276,
      "гора": 7277,
      "лучших": 7278,
      "налогов": 7279,
      "уль": 7280,
      "западных": 7281,
      "признает": 7282,
      "Спарта": 7283,
      "Петербурга": 7284,
      "выпуск": 7285,
      "Егип": 7286,
      "Константин": 7287,
      "содержи": 7288,
      "жала": 7289,
      "газете": 7290,
      "евой": 7291,
      "властям": 7292,
      "длин": 7293,
      "льго": 7294,
      "предприятий": 7295,
      "Am": 7296,
      "Юлия": 7297,
      "констати": 7298,
      "ждут": 7299,
      "лизо": 7300,
      "сообщества": 7301,
      "войну": 7302,
      "Генна": 7303,
      "поддержать": 7304,
      "подсуди": 7305,
      "опубликовал": 7306,
      "аккаун": 7307,
      "ляция": 7308,
      "вырос": 7309,
      "копи": 7310,
      "1990": 7311,
      "манда": 7312,
      "Фей": 7313,
      "связанные": 7314,
      "откуда": 7315,
      "КС": 7316,
      "ьет": 7317,
      "ману": 7318,
      "идеи": 7319,
      "БДД": 7320,
      "хозяева": 7321,
      "федерального": 7322,
      "Донецкой": 7323,
      "нагруз": 7324,
      "нужна": 7325,
      "подразделения": 7326,
      "годом": 7327,
      "Кореи": 7328,
      "принадлежит": 7329,
      "Союза": 7330,
      "Вскоре": 7331,
      "Фер": 7332,
      "Стоит": 7333,
      "az": 7334,
      "знаком": 7335,
      "цене": 7336,
      "ванной": 7337,
      "решению": 7338,
      "армей": 7339,
      "Турция": 7340,
      "хотелось": 7341,
      "связанных": 7342,
      "зарубе": 7343,
      "спортсменов": 7344,
      "указал": 7345,
      "оценкам": 7346,
      "памяти": 7347,
      "ума": 7348,
      "ушел": 7349,
      "учреждения": 7350,
      "рель": 7351,
      "est": 7352,
      "какого": 7353,
      "экономических": 7354,
      "жида": 7355,
      "заказ": 7356,
      "инвесторов": 7357,
      "трой": 7358,
      "юк": 7359,
      "определя": 7360,
      "Сла": 7361,
      "Ура": 7362,
      "нож": 7363,
      "выводу": 7364,
      "категории": 7365,
      "мошенниче": 7366,
      "рации": 7367,
      "относится": 7368,
      "лум": 7369,
      "принципе": 7370,
      "цело": 7371,
      "острове": 7372,
      "ГИБДД": 7373,
      "украинцев": 7374,
      "повстан": 7375,
      "второе": 7376,
      "песни": 7377,
      "успех": 7378,
      "цева": 7379,
      "поражения": 7380,
      "Air": 7381,
      "разведки": 7382,
      "ковым": 7383,
      "подтвердили": 7384,
      "ступление": 7385,
      "намерены": 7386,
      "сбуке": 7387,
      "обвинение": 7388,
      "сант": 7389,
      "ost": 7390,
      "валь": 7391,
      "ЭС": 7392,
      "официальном": 7393,
      "специалист": 7394,
      "нят": 7395,
      "экономика": 7396,
      "Дэвид": 7397,
      "гим": 7398,
      "езде": 7399,
      "нович": 7400,
      "единственный": 7401,
      "операцию": 7402,
      "ul": 7403,
      "стно": 7404,
      "Зато": 7405,
      "компанию": 7406,
      "скончался": 7407,
      "Василь": 7408,
      "изби": 7409,
      "ФБР": 7410,
      "напи": 7411,
      "нормы": 7412,
      "менедж": 7413,
      "пуль": 7414,
      "возбуждено": 7415,
      "цом": 7416,
      "Заха": 7417,
      "поздра": 7418,
      "относятся": 7419,
      "Локо": 7420,
      "приведет": 7421,
      "Нидерлан": 7422,
      "вости": 7423,
      "евре": 7424,
      "создан": 7425,
      "избра": 7426,
      "понимаю": 7427,
      "пик": 7428,
      "зачем": 7429,
      "Кам": 7430,
      "Кажды": 7431,
      "Кра": 7432,
      "Главный": 7433,
      "зато": 7434,
      "комплекса": 7435,
      "мама": 7436,
      "мел": 7437,
      "тарь": 7438,
      "изба": 7439,
      "Петербург": 7440,
      "Мек": 7441,
      "необы": 7442,
      "пресе": 7443,
      "прекрасно": 7444,
      "увеличить": 7445,
      "достой": 7446,
      "спосо": 7447,
      "службу": 7448,
      "продолжается": 7449,
      "потери": 7450,
      "основных": 7451,
      "илла": 7452,
      "имели": 7453,
      "далее": 7454,
      "»).": 7455,
      "победа": 7456,
      "Спустя": 7457,
      "нулся": 7458,
      "успеха": 7459,
      "законопроекта": 7460,
      "ственном": 7461,
      "наказания": 7462,
      "фильмов": 7463,
      "Спартак": 7464,
      "киев": 7465,
      "An": 7466,
      "признать": 7467,
      "получает": 7468,
      "состоит": 7469,
      "быстрее": 7470,
      "Несколько": 7471,
      "Дол": 7472,
      "министерство": 7473,
      "Анге": 7474,
      "ответа": 7475,
      "повест": 7476,
      "Тру": 7477,
      "Просто": 7478,
      "скандал": 7479,
      "температура": 7480,
      "Союз": 7481,
      "поставить": 7482,
      "обществе": 7483,
      "надзор": 7484,
      "сетей": 7485,
      "задолго": 7486,
      "жеб": 7487,
      "Америке": 7488,
      "поражение": 7489,
      "видов": 7490,
      "Куз": 7491,
      "церемонии": 7492,
      "ковского": 7493,
      "Уильям": 7494,
      "Кара": 7495,
      "выделя": 7496,
      "ань": 7497,
      "дию": 7498,
      "полицию": 7499,
      "судя": 7500,
      "нав": 7501,
      "шель": 7502,
      "заключенных": 7503,
      "номе": 7504,
      "дите": 7505,
      "компанией": 7506,
      "словами": 7507,
      "жие": 7508,
      "экологи": 7509,
      "правя": 7510,
      "фракции": 7511,
      "лера": 7512,
      "Депута": 7513,
      "отрасли": 7514,
      "картина": 7515,
      "полит": 7516,
      "падения": 7517,
      "най": 7518,
      "допуска": 7519,
      "мирового": 7520,
      "доказательства": 7521,
      "другая": 7522,
      "ne": 7523,
      "Пресс": 7524,
      "дес": 7525,
      "стреля": 7526,
      "нарушений": 7527,
      "лице": 7528,
      "отлич": 7529,
      "Тер": 7530,
      "помеша": 7531,
      "высокой": 7532,
      "заключается": 7533,
      "предше": 7534,
      "емая": 7535,
      "поколения": 7536,
      "цкий": 7537,
      "ведомство": 7538,
      "придержи": 7539,
      "этап": 7540,
      "зная": 7541,
      "нара": 7542,
      "Единой": 7543,
      "Илья": 7544,
      "доль": 7545,
      "смыс": 7546,
      "хочется": 7547,
      "медиа": 7548,
      "драма": 7549,
      "называется": 7550,
      "директоров": 7551,
      "учитывая": 7552,
      "оли": 7553,
      "стере": 7554,
      "офф": 7555,
      "возраст": 7556,
      "Служ": 7557,
      "взяли": 7558,
      "высокопостав": 7559,
      "проекте": 7560,
      "чности": 7561,
      "Лондон": 7562,
      "удара": 7563,
      "начинает": 7564,
      "лил": 7565,
      "гера": 7566,
      "взят": 7567,
      "Мосгор": 7568,
      "получилось": 7569,
      "ученых": 7570,
      "бий": 7571,
      "ставила": 7572,
      "лую": 7573,
      "сообщалось": 7574,
      "открыто": 7575,
      "видит": 7576,
      "силами": 7577,
      "случаи": 7578,
      "лит": 7579,
      "следование": 7580,
      "активистов": 7581,
      "приехал": 7582,
      "водом": 7583,
      "районах": 7584,
      "сегодняш": 7585,
      "оскорб": 7586,
      "сной": 7587,
      "мозга": 7588,
      "разговари": 7589,
      "титься": 7590,
      "многое": 7591,
      "ющийся": 7592,
      "чисто": 7593,
      "суток": 7594,
      "счету": 7595,
      "Каждый": 7596,
      "профессиона": 7597,
      "заканчи": 7598,
      "ционным": 7599,
      "субъек": 7600,
      "гаранти": 7601,
      "железно": 7602,
      "гают": 7603,
      "документе": 7604,
      "разговор": 7605,
      "пожи": 7606,
      "Ближ": 7607,
      "говорила": 7608,
      "фанта": 7609,
      "видят": 7610,
      "крупнейших": 7611,
      "критику": 7612,
      "полагают": 7613,
      "сегодняшний": 7614,
      "стрен": 7615,
      "вывод": 7616,
      "канала": 7617,
      "референдума": 7618,
      "комфор": 7619,
      "дизай": 7620,
      "Демо": 7621,
      "законодательства": 7622,
      "сним": 7623,
      "солдат": 7624,
      "неожиданно": 7625,
      "дочери": 7626,
      "пришла": 7627,
      "судов": 7628,
      "поправки": 7629,
      "женные": 7630,
      "ess": 7631,
      "бабу": 7632,
      "направления": 7633,
      "Леонид": 7634,
      "наличи": 7635,
      "Меня": 7636,
      "лечения": 7637,
      "лиши": 7638,
      "читься": 7639,
      "аргу": 7640,
      "тяж": 7641,
      "ЛНР": 7642,
      "голь": 7643,
      "ционную": 7644,
      "сотрудничество": 7645,
      "Хе": 7646,
      "милиции": 7647,
      "переход": 7648,
      "источников": 7649,
      "клет": 7650,
      "достовер": 7651,
      "рассу": 7652,
      "ислами": 7653,
      "намного": 7654,
      "зим": 7655,
      "ссыла": 7656,
      "образование": 7657,
      "требуют": 7658,
      "тща": 7659,
      "левой": 7660,
      "ул": 7661,
      "жается": 7662,
      "собеседник": 7663,
      "ужесто": 7664,
      "Нем": 7665,
      "началу": 7666,
      "поддерживать": 7667,
      "плака": 7668,
      "наруши": 7669,
      "посад": 7670,
      "различные": 7671,
      "москви": 7672,
      "остаться": 7673,
      "марки": 7674,
      "индивидуаль": 7675,
      "служеб": 7676,
      "международным": 7677,
      "доказательств": 7678,
      "полгода": 7679,
      "ведущий": 7680,
      "природ": 7681,
      "роман": 7682,
      "слову": 7683,
      "правительством": 7684,
      "ведений": 7685,
      "Свобо": 7686,
      "рованного": 7687,
      "развитию": 7688,
      "преимущество": 7689,
      "Мур": 7690,
      "упомя": 7691,
      "владе": 7692,
      "поставок": 7693,
      "третьем": 7694,
      "остров": 7695,
      "сопровожда": 7696,
      "дорого": 7697,
      "пети": 7698,
      "половины": 7699,
      "перспек": 7700,
      "тивное": 7701,
      "ванный": 7702,
      "объявила": 7703,
      "задачи": 7704,
      "леть": 7705,
      "Объ": 7706,
      "удоволь": 7707,
      "докладе": 7708,
      "57": 7709,
      "рейтинг": 7710,
      "хин": 7711,
      "скет": 7712,
      "нное": 7713,
      "инвестиций": 7714,
      "тебе": 7715,
      "нашими": 7716,
      "нори": 7717,
      "заметно": 7718,
      "Един": 7719,
      "Эм": 7720,
      "мероприятий": 7721,
      "Универси": 7722,
      "текст": 7723,
      "продолжи": 7724,
      "привело": 7725,
      "российское": 7726,
      "края": 7727,
      "обвинил": 7728,
      "рад": 7729,
      "вызвало": 7730,
      "пунктов": 7731,
      "дове": 7732,
      "гвар": 7733,
      "финансирования": 7734,
      "получается": 7735,
      "надзора": 7736,
      "консуль": 7737,
      "исследование": 7738,
      "мыми": 7739,
      "добавила": 7740,
      "костю": 7741,
      "ходило": 7742,
      "лучший": 7743,
      "лая": 7744,
      "страной": 7745,
      "преступлений": 7746,
      "интересов": 7747,
      "профи": 7748,
      "способность": 7749,
      "независимости": 7750,
      "ложить": 7751,
      "федерации": 7752,
      "дю": 7753,
      "беремен": 7754,
      "любые": 7755,
      "Министерство": 7756,
      "обеспоко": 7757,
      "настав": 7758,
      "анне": 7759,
      "обращения": 7760,
      "судьи": 7761,
      "представителями": 7762,
      "московского": 7763,
      "согласился": 7764,
      "обру": 7765,
      "воло": 7766,
      "Кирил": 7767,
      "нуться": 7768,
      "назначения": 7769,
      "игнори": 7770,
      "художе": 7771,
      "Армении": 7772,
      "репута": 7773,
      "состояния": 7774,
      "лси": 7775,
      "примет": 7776,
      "нужен": 7777,
      "многом": 7778,
      "Зна": 7779,
      "Анаста": 7780,
      "другую": 7781,
      "окончательно": 7782,
      "Пробле": 7783,
      "ВА": 7784,
      "ером": 7785,
      "письма": 7786,
      "направля": 7787,
      "отдельных": 7788,
      "координа": 7789,
      "ленным": 7790,
      "протест": 7791,
      "продаж": 7792,
      "никого": 7793,
      "КНР": 7794,
      "вошли": 7795,
      "вспоминает": 7796,
      "наци": 7797,
      "гали": 7798,
      "ОБСЕ": 7799,
      "понимают": 7800,
      "коалиции": 7801,
      "потребу": 7802,
      "турнире": 7803,
      "веж": 7804,
      "сказано": 7805,
      "километров": 7806,
      "революции": 7807,
      "точку": 7808,
      "лизации": 7809,
      "Особ": 7810,
      "имена": 7811,
      "подготовке": 7812,
      "обеих": 7813,
      "протестов": 7814,
      "судей": 7815,
      "посольства": 7816,
      "выигры": 7817,
      "ковский": 7818,
      "плы": 7819,
      "убы": 7820,
      "ak": 7821,
      "Правительство": 7822,
      "госсе": 7823,
      "сериала": 7824,
      "Донбасса": 7825,
      "расстоя": 7826,
      "понрави": 7827,
      "Оп": 7828,
      "обнови": 7829,
      "th": 7830,
      "Венесуэ": 7831,
      "выступление": 7832,
      "самолеты": 7833,
      "Пан": 7834,
      "поясняет": 7835,
      "школу": 7836,
      "борьба": 7837,
      "финансовых": 7838,
      "регистрации": 7839,
      "56": 7840,
      "российскую": 7841,
      "поиска": 7842,
      "средо": 7843,
      "отлича": 7844,
      "Два": 7845,
      "уте": 7846,
      "Франция": 7847,
      "ТС": 7848,
      "зарплаты": 7849,
      "Манче": 7850,
      "обязательства": 7851,
      "Коммер": 7852,
      "детям": 7853,
      "Такое": 7854,
      "саммита": 7855,
      "Пя": 7856,
      "аэропорту": 7857,
      "чий": 7858,
      "курса": 7859,
      "изна": 7860,
      "строго": 7861,
      "двой": 7862,
      "эффект": 7863,
      "ственную": 7864,
      "пошел": 7865,
      "дует": 7866,
      "случайно": 7867,
      "уверя": 7868,
      "сделано": 7869,
      "тли": 7870,
      "провода": 7871,
      "Марк": 7872,
      "британских": 7873,
      "пострадали": 7874,
      "Интерфакс": 7875,
      "провинции": 7876,
      "енные": 7877,
      "пони": 7878,
      "проли": 7879,
      "десятков": 7880,
      "НБ": 7881,
      "динами": 7882,
      "финансовой": 7883,
      "основании": 7884,
      "вызо": 7885,
      "дана": 7886,
      "выгод": 7887,
      "2021": 7888,
      "заключен": 7889,
      "щают": 7890,
      "York": 7891,
      "Фото": 7892,
      "Денис": 7893,
      "ниями": 7894,
      "национального": 7895,
      "последней": 7896,
      "наличие": 7897,
      "all": 7898,
      "используют": 7899,
      "энергии": 7900,
      "сотрудника": 7901,
      "надея": 7902,
      "русский": 7903,
      "формули": 7904,
      "оценки": 7905,
      "давления": 7906,
      "Кири": 7907,
      "влек": 7908,
      "разработа": 7909,
      "ФАН": 7910,
      "Тихо": 7911,
      "пали": 7912,
      "hone": 7913,
      "общественных": 7914,
      "аде": 7915,
      "принципи": 7916,
      "процент": 7917,
      "Твиттере": 7918,
      "армия": 7919,
      "исследователь": 7920,
      "собираются": 7921,
      "началось": 7922,
      "прися": 7923,
      "штур": 7924,
      "академи": 7925,
      "сомн": 7926,
      "повышения": 7927,
      "ова": 7928,
      "Полиция": 7929,
      "аннекси": 7930,
      "переди": 7931,
      "Инте": 7932,
      "воспита": 7933,
      "оном": 7934,
      "чак": 7935,
      "нным": 7936,
      "затя": 7937,
      "вард": 7938,
      "рик": 7939,
      "брас": 7940,
      "тино": 7941,
      "ир": 7942,
      "население": 7943,
      "Российская": 7944,
      "память": 7945,
      "размести": 7946,
      "браться": 7947,
      "фигуран": 7948,
      "aily": 7949,
      "корпу": 7950,
      "кут": 7951,
      "пусты": 7952,
      "чество": 7953,
      "ждая": 7954,
      "большинстве": 7955,
      "следовать": 7956,
      "необходимые": 7957,
      "успел": 7958,
      "Демокра": 7959,
      "Bo": 7960,
      "возобнов": 7961,
      "ie": 7962,
      "дистан": 7963,
      "некоторое": 7964,
      "метал": 7965,
      "сообщило": 7966,
      "брига": 7967,
      "проверку": 7968,
      "идею": 7969,
      "актера": 7970,
      "целях": 7971,
      "заключи": 7972,
      "тюрьмы": 7973,
      "Гражда": 7974,
      "решении": 7975,
      "сх": 7976,
      "Анатолий": 7977,
      "озе": 7978,
      "воздуха": 7979,
      "завод": 7980,
      "Мор": 7981,
      "тную": 7982,
      "рово": 7983,
      "ните": 7984,
      "ющему": 7985,
      "Сотруд": 7986,
      "разрешения": 7987,
      "Откры": 7988,
      "осна": 7989,
      "Светлана": 7990,
      "Мэ": 7991,
      "Юрия": 7992,
      "мири": 7993,
      "зун": 7994,
      "остальных": 7995,
      "аэропорта": 7996,
      "Судь": 7997,
      "фунтов": 7998,
      "95": 7999,
      "родился": 8000,
      "недостаточно": 8001,
      "Daily": 8002,
      "стон": 8003,
      "зен": 8004,
      "весной": 8005,
      "спецслужб": 8006,
      "фестиваля": 8007,
      "побед": 8008,
      "первен": 8009,
      "тивная": 8010,
      "графии": 8011,
      "эконом": 8012,
      "сии": 8013,
      "администрация": 8014,
      "полноцен": 8015,
      "Мекси": 8016,
      "кистана": 8017,
      "интеллек": 8018,
      "канц": 8019,
      "тная": 8020,
      "обсуждения": 8021,
      "подвод": 8022,
      "дохода": 8023,
      "метра": 8024,
      "сосредо": 8025,
      "материалов": 8026,
      "Мака": 8027,
      "Швей": 8028,
      "несовершенно": 8029,
      "вость": 8030,
      "менил": 8031,
      "рассказывал": 8032,
      "77": 8033,
      "партнеров": 8034,
      "пройдут": 8035,
      "пожалуй": 8036,
      "бесплат": 8037,
      "дала": 8038,
      "СБУ": 8039,
      "явление": 8040,
      "ровку": 8041,
      "Ред": 8042,
      "эска": 8043,
      "пойдет": 8044,
      "Барсело": 8045,
      "экстра": 8046,
      "произойдет": 8047,
      "звезды": 8048,
      "возь": 8049,
      "подклю": 8050,
      "чность": 8051,
      "Индии": 8052,
      "чувству": 8053,
      "огла": 8054,
      "пакет": 8055,
      "подопе": 8056,
      "вах": 8057,
      "сохрани": 8058,
      "Адвокат": 8059,
      "52": 8060,
      "кв": 8061,
      "ранены": 8062,
      "Восточной": 8063,
      "…+": 8064,
      "признали": 8065,
      "внешней": 8066,
      "ровок": 8067,
      "теме": 8068,
      "вызыва": 8069,
      "отделения": 8070,
      "оставаться": 8071,
      "пев": 8072,
      "адвоката": 8073,
      "голоса": 8074,
      "языка": 8075,
      "моде": 8076,
      "карьеру": 8077,
      "несла": 8078,
      "стадии": 8079,
      "старший": 8080,
      "еть": 8081,
      "Лебе": 8082,
      "объяснить": 8083,
      "небольшой": 8084,
      "пласти": 8085,
      "сыграл": 8086,
      "осенью": 8087,
      "ФР": 8088,
      "четко": 8089,
      "спасти": 8090,
      "Gu": 8091,
      "ube": 8092,
      "дальнейшем": 8093,
      "Хоро": 8094,
      "беспоко": 8095,
      "причине": 8096,
      "Януковича": 8097,
      "РАН": 8098,
      "необходимость": 8099,
      "Жу": 8100,
      "ере": 8101,
      "центри": 8102,
      "Ситуа": 8103,
      "появля": 8104,
      "желе": 8105,
      "ционное": 8106,
      "проводит": 8107,
      "главу": 8108,
      "ответить": 8109,
      "жени": 8110,
      "канад": 8111,
      "эпидеми": 8112,
      "каждом": 8113,
      "предусматривает": 8114,
      "гражданам": 8115,
      "генеральный": 8116,
      "Азии": 8117,
      "выходные": 8118,
      "средней": 8119,
      "официальных": 8120,
      "здоровье": 8121,
      "идеологи": 8122,
      "версию": 8123,
      "Больше": 8124,
      "выходить": 8125,
      "появилось": 8126,
      "непро": 8127,
      "хороший": 8128,
      "флота": 8129,
      "беседе": 8130,
      "госсекре": 8131,
      "операция": 8132,
      "находиться": 8133,
      "меда": 8134,
      "запу": 8135,
      "футболу": 8136,
      "слан": 8137,
      "выплаты": 8138,
      "лечение": 8139,
      "ближе": 8140,
      "предпочита": 8141,
      "результатам": 8142,
      "перено": 8143,
      "обли": 8144,
      "правительству": 8145,
      "выиграл": 8146,
      "отста": 8147,
      "нападение": 8148,
      "последним": 8149,
      "чиновник": 8150,
      "жут": 8151,
      "никому": 8152,
      "гражданской": 8153,
      "Кру": 8154,
      "Фо": 8155,
      "Вопрос": 8156,
      "регион": 8157,
      "заявляет": 8158,
      "жется": 8159,
      "енных": 8160,
      "катастрофы": 8161,
      "Магнит": 8162,
      "другому": 8163,
      "подверг": 8164,
      "выбро": 8165,
      "местной": 8166,
      "леку": 8167,
      "ограничений": 8168,
      "зала": 8169,
      "сделала": 8170,
      "третьей": 8171,
      "влияния": 8172,
      "отвечает": 8173,
      "Кремль": 8174,
      "способности": 8175,
      "официального": 8176,
      "частично": 8177,
      "спрос": 8178,
      "непросто": 8179,
      "снизить": 8180,
      "Мил": 8181,
      "яв": 8182,
      "сра": 8183,
      "мете": 8184,
      "резю": 8185,
      "Жур": 8186,
      "Ино": 8187,
      "раско": 8188,
      "ракета": 8189,
      "мян": 8190,
      "человеку": 8191,
      "Европейского": 8192,
      "оф": 8193,
      "Тро": 8194,
      "завода": 8195,
      "научи": 8196,
      "брон": 8197,
      "шкой": 8198,
      "голу": 8199,
      "кури": 8200,
      "сталки": 8201,
      "нашем": 8202,
      "орби": 8203,
      "ценко": 8204,
      "торже": 8205,
      "пользователи": 8206,
      "помогает": 8207,
      "тическим": 8208,
      "муль": 8209,
      "командова": 8210,
      "играли": 8211,
      "переговорах": 8212,
      "приро": 8213,
      "фамили": 8214,
      "ряде": 8215,
      "публично": 8216,
      "личные": 8217,
      "высокий": 8218,
      "поставля": 8219,
      "торами": 8220,
      "благотвори": 8221,
      "вия": 8222,
      "этими": 8223,
      "чник": 8224,
      "показывают": 8225,
      "кг": 8226,
      "довери": 8227,
      "пак": 8228,
      "задержания": 8229,
      "товой": 8230,
      "теми": 8231,
      "пал": 8232,
      "хотела": 8233,
      "Вашингтоне": 8234,
      "достигну": 8235,
      "Пон": 8236,
      "поса": 8237,
      "сцене": 8238,
      "совместно": 8239,
      "вий": 8240,
      "сыла": 8241,
      "долгосро": 8242,
      "ежегодно": 8243,
      "проверить": 8244,
      "Гарри": 8245,
      "воци": 8246,
      "гни": 8247,
      "емости": 8248,
      "Сева": 8249,
      "оружием": 8250,
      "предлагают": 8251,
      "Следственный": 8252,
      "нял": 8253,
      "сильнее": 8254,
      "Хи": 8255,
      "устойчи": 8256,
      "ненави": 8257,
      "приви": 8258,
      "менко": 8259,
      "партию": 8260,
      "скром": 8261,
      "спровоци": 8262,
      "Кли": 8263,
      "известных": 8264,
      "ФИФА": 8265,
      "лучшим": 8266,
      "600": 8267,
      "ссий": 8268,
      "ровке": 8269,
      "Мир": 8270,
      "журналиста": 8271,
      "приста": 8272,
      "объяс": 8273,
      "услыша": 8274,
      "Ему": 8275,
      "разби": 8276,
      "Бел": 8277,
      "плана": 8278,
      "русского": 8279,
      "округа": 8280,
      "интересу": 8281,
      "мировых": 8282,
      "аналитики": 8283,
      "агентству": 8284,
      "Газпрома": 8285,
      "обвинили": 8286,
      "автори": 8287,
      "командой": 8288,
      "законы": 8289,
      "запуска": 8290,
      "дельно": 8291,
      "акция": 8292,
      "родственников": 8293,
      "указывает": 8294,
      "опасности": 8295,
      "отказалась": 8296,
      "беспи": 8297,
      "секун": 8298,
      "секто": 8299,
      "руководителей": 8300,
      "активисты": 8301,
      "достижения": 8302,
      "применения": 8303,
      "винова": 8304,
      "женный": 8305,
      "Муж": 8306,
      "Было": 8307,
      "немедленно": 8308,
      "позднее": 8309,
      "вшаяся": 8310,
      "безусловно": 8311,
      "хозяев": 8312,
      "неприят": 8313,
      "ареста": 8314,
      "выполнять": 8315,
      "общаться": 8316,
      "валюты": 8317,
      "авиакомпании": 8318,
      "ros": 8319,
      "клиентов": 8320,
      "Париже": 8321,
      "тите": 8322,
      "процентов": 8323,
      "экстрен": 8324,
      "мерт": 8325,
      "Оска": 8326,
      "американцы": 8327,
      "делал": 8328,
      "ВИ": 8329,
      "суммы": 8330,
      "тексте": 8331,
      "вчера": 8332,
      "жном": 8333,
      "хина": 8334,
      "деб": 8335,
      "интересно": 8336,
      "тивную": 8337,
      "Эль": 8338,
      "распространения": 8339,
      "дисци": 8340,
      "обратиться": 8341,
      "пассажир": 8342,
      "преце": 8343,
      "щика": 8344,
      "ненко": 8345,
      "европейские": 8346,
      "бывших": 8347,
      "операций": 8348,
      "миллион": 8349,
      "предложили": 8350,
      "озву": 8351,
      "Никто": 8352,
      "следить": 8353,
      "вызвал": 8354,
      "совершил": 8355,
      "ровались": 8356,
      "допусти": 8357,
      "максимально": 8358,
      "сверх": 8359,
      "сектора": 8360,
      "волну": 8361,
      "Учены": 8362,
      "пределами": 8363,
      "обходи": 8364,
      "стической": 8365,
      "рекомендова": 8366,
      "чники": 8367,
      "бая": 8368,
      "our": 8369,
      "сосредото": 8370,
      "Пента": 8371,
      "рады": 8372,
      "вооружения": 8373,
      "ват": 8374,
      "диалог": 8375,
      "Причи": 8376,
      "сократить": 8377,
      "оставить": 8378,
      "ошибки": 8379,
      "таря": 8380,
      "пр": 8381,
      "хло": 8382,
      "вероятность": 8383,
      "баты": 8384,
      "сных": 8385,
      "запол": 8386,
      "баров": 8387,
      "кера": 8388,
      "древ": 8389,
      "жилья": 8390,
      "Йорке": 8391,
      "ровался": 8392,
      "обратил": 8393,
      "счете": 8394,
      "огне": 8395,
      "угроза": 8396,
      "подчеркивает": 8397,
      "кисло": 8398,
      "вируса": 8399,
      "злоумышлен": 8400,
      "актуаль": 8401,
      "политическим": 8402,
      "Олега": 8403,
      "араб": 8404,
      "Пара": 8405,
      "ветера": 8406,
      "версия": 8407,
      "To": 8408,
      "введение": 8409,
      "Соединенных": 8410,
      "делали": 8411,
      "ренко": 8412,
      "Газе": 8413,
      "театр": 8414,
      "глазах": 8415,
      "отклю": 8416,
      "подход": 8417,
      "любви": 8418,
      "авторов": 8419,
      "Игоря": 8420,
      "мужа": 8421,
      "инфраструктуры": 8422,
      "лежит": 8423,
      "нака": 8424,
      "Роди": 8425,
      "штей": 8426,
      "старо": 8427,
      "жих": 8428,
      "машина": 8429,
      "возвращения": 8430,
      "Сити": 8431,
      "турой": 8432,
      "убежи": 8433,
      "денти": 8434,
      "ваясь": 8435,
      "Вин": 8436,
      "американским": 8437,
      "террористической": 8438,
      "авиации": 8439,
      "носят": 8440,
      "ровой": 8441,
      "границ": 8442,
      "буты": 8443,
      "передать": 8444,
      "поддерживают": 8445,
      "полета": 8446,
      "работо": 8447,
      "матчах": 8448,
      "назвала": 8449,
      "Inter": 8450,
      "европейской": 8451,
      "ьте": 8452,
      "тельница": 8453,
      "колон": 8454,
      "Джона": 8455,
      "арбитра": 8456,
      "Ран": 8457,
      "свыше": 8458,
      "ково": 8459,
      "баскет": 8460,
      "считал": 8461,
      "Сво": 8462,
      "няли": 8463,
      "Британ": 8464,
      "довой": 8465,
      "напрямую": 8466,
      "прозра": 8467,
      "Груп": 8468,
      "опы": 8469,
      "некоторым": 8470,
      "конкурса": 8471,
      "экипажа": 8472,
      "продаже": 8473,
      "реально": 8474,
      "входят": 8475,
      "судом": 8476,
      "доктор": 8477,
      "почув": 8478,
      "регуля": 8479,
      "тябрь": 8480,
      "попытка": 8481,
      "ковые": 8482,
      "манов": 8483,
      "российско": 8484,
      "сокращение": 8485,
      "курор": 8486,
      "защитить": 8487,
      "разоча": 8488,
      "Кремле": 8489,
      "отрицает": 8490,
      "гона": 8491,
      "крупные": 8492,
      "законом": 8493,
      "образова": 8494,
      "ночи": 8495,
      "голки": 8496,
      "удары": 8497,
      "Николая": 8498,
      "задержанных": 8499,
      "соответствует": 8500,
      "целый": 8501,
      "вающие": 8502,
      "зию": 8503,
      "2003": 8504,
      "определить": 8505,
      "кот": 8506,
      "58": 8507,
      "объекты": 8508,
      "непосредственно": 8509,
      "подчеркнула": 8510,
      "голосование": 8511,
      "политолог": 8512,
      "делец": 8513,
      "группах": 8514,
      "щё": 8515,
      "хождение": 8516,
      "бина": 8517,
      "яз": 8518,
      "самих": 8519,
      "действиях": 8520,
      "планируют": 8521,
      "дороге": 8522,
      "ters": 8523,
      "ash": 8524,
      "протесты": 8525,
      "впло": 8526,
      "лат": 8527,
      "перекры": 8528,
      "вклад": 8529,
      "стагра": 8530,
      "понимать": 8531,
      "выходит": 8532,
      "разрабаты": 8533,
      "науки": 8534,
      "проф": 8535,
      "земле": 8536,
      "площадь": 8537,
      "нынешнем": 8538,
      "неве": 8539,
      "компроми": 8540,
      "Юлии": 8541,
      "следующего": 8542,
      "ислам": 8543,
      "хле": 8544,
      "сообщали": 8545,
      "офице": 8546,
      "обез": 8547,
      "студии": 8548,
      "вятся": 8549,
      "вера": 8550,
      "Поч": 8551,
      "приостанов": 8552,
      "Скрипа": 8553,
      "осмо": 8554,
      "характера": 8555,
      "Сред": 8556,
      "контакте": 8557,
      "ational": 8558,
      "кает": 8559,
      "зача": 8560,
      "кового": 8561,
      "жаться": 8562,
      "гана": 8563,
      "обратно": 8564,
      "следующей": 8565,
      "агрессив": 8566,
      "познакоми": 8567,
      "актриса": 8568,
      "um": 8569,
      "Челси": 8570,
      "подмосков": 8571,
      "состоялся": 8572,
      "Востоке": 8573,
      "uss": 8574,
      "ноу": 8575,
      "няются": 8576,
      "этапа": 8577,
      "голос": 8578,
      "начинают": 8579,
      "лозун": 8580,
      "исследователи": 8581,
      "ядерной": 8582,
      "алкоголя": 8583,
      "Ван": 8584,
      "риски": 8585,
      "друже": 8586,
      "ers": 8587,
      "критики": 8588,
      "привел": 8589,
      "Кен": 8590,
      "мит": 8591,
      "iPhone": 8592,
      "картин": 8593,
      "Сар": 8594,
      "потря": 8595,
      "достаточ": 8596,
      "официальной": 8597,
      "долю": 8598,
      "двадца": 8599,
      "заверил": 8600,
      "(\"": 8601,
      "сны": 8602,
      "симпто": 8603,
      "показатели": 8604,
      "гая": 8605,
      "выступать": 8606,
      "корпорации": 8607,
      "забро": 8608,
      "заключение": 8609,
      "воздух": 8610,
      "поми": 8611,
      "появится": 8612,
      "любого": 8613,
      "чивать": 8614,
      "упал": 8615,
      "посет": 8616,
      "иденти": 8617,
      "машине": 8618,
      "Венг": 8619,
      "защитника": 8620,
      "даты": 8621,
      "сдержи": 8622,
      "моего": 8623,
      "хорошие": 8624,
      "схе": 8625,
      "риска": 8626,
      "звезда": 8627,
      "сценарий": 8628,
      "раун": 8629,
      "оппозиция": 8630,
      "семью": 8631,
      "атаку": 8632,
      "повторя": 8633,
      "тером": 8634,
      "секунд": 8635,
      "Подоб": 8636,
      "Чен": 8637,
      "жным": 8638,
      "швей": 8639,
      "roup": 8640,
      "чере": 8641,
      "жь": 8642,
      "штате": 8643,
      "угрозой": 8644,
      "виновным": 8645,
      "честно": 8646,
      "53": 8647,
      "Тран": 8648,
      "повед": 8649,
      "петь": 8650,
      "материалами": 8651,
      "доказать": 8652,
      "госпитализи": 8653,
      "выросли": 8654,
      "дож": 8655,
      "тье": 8656,
      "стить": 8657,
      "Майкл": 8658,
      "апел": 8659,
      "аварий": 8660,
      "кибер": 8661,
      "сумел": 8662,
      "разли": 8663,
      "бую": 8664,
      "Швейца": 8665,
      "экономику": 8666,
      "пира": 8667,
      "думали": 8668,
      "выступили": 8669,
      "Нужно": 8670,
      "сибо": 8671,
      "\":": 8672,
      "уско": 8673,
      "отвечать": 8674,
      "поддержали": 8675,
      "промышленности": 8676,
      "нанес": 8677,
      "половине": 8678,
      "Австралии": 8679,
      "доли": 8680,
      "увеличение": 8681,
      "активов": 8682,
      "вооружений": 8683,
      "гности": 8684,
      "палестин": 8685,
      "Доб": 8686,
      "выде": 8687,
      "структур": 8688,
      "закуп": 8689,
      "выступал": 8690,
      "грузови": 8691,
      "тном": 8692,
      "ниж": 8693,
      "выжи": 8694,
      "подобного": 8695,
      "СКР": 8696,
      "ресурсов": 8697,
      "Эсто": 8698,
      "музей": 8699,
      "занял": 8700,
      "оправда": 8701,
      "Наф": 8702,
      "формирования": 8703,
      "Вячеслав": 8704,
      "ссов": 8705,
      "английском": 8706,
      "Наи": 8707,
      "оставля": 8708,
      "очереди": 8709,
      "сыграть": 8710,
      "кен": 8711,
      "увидел": 8712,
      "тились": 8713,
      "мори": 8714,
      "ленная": 8715,
      "понимает": 8716,
      "становятся": 8717,
      "приехали": 8718,
      "смысл": 8719,
      "разиль": 8720,
      "Кузнец": 8721,
      "адеква": 8722,
      "возможностей": 8723,
      "свадь": 8724,
      "недвижимости": 8725,
      "официальным": 8726,
      "комментариев": 8727,
      "дисципли": 8728,
      "ленко": 8729,
      "Бель": 8730,
      "тво": 8731,
      "Пом": 8732,
      "тюрьме": 8733,
      "Особенно": 8734,
      "договорились": 8735,
      "запрос": 8736,
      "зываться": 8737,
      "набира": 8738,
      "доклад": 8739,
      "среднего": 8740,
      "педа": 8741,
      "Баша": 8742,
      "уверенно": 8743,
      "наверняка": 8744,
      "Люд": 8745,
      "Великобритания": 8746,
      "медицинской": 8747,
      "прессе": 8748,
      "традиционно": 8749,
      "выводы": 8750,
      "предска": 8751,
      "коммуна": 8752,
      "общения": 8753,
      "йн": 8754,
      "ряды": 8755,
      "экономические": 8756,
      "зарабаты": 8757,
      "енный": 8758,
      "зону": 8759,
      "способны": 8760,
      "подозр": 8761,
      "Черно": 8762,
      "остана": 8763,
      "квартале": 8764,
      "проявля": 8765,
      "участии": 8766,
      "устройство": 8767,
      "Cov": 8768,
      "Кей": 8769,
      "вижу": 8770,
      "определенные": 8771,
      "ядерного": 8772,
      "Дар": 8773,
      "сере": 8774,
      "отменить": 8775,
      "личных": 8776,
      "качество": 8777,
      "останавли": 8778,
      "Лин": 8779,
      "вказ": 8780,
      "преда": 8781,
      "вызвали": 8782,
      "Следственного": 8783,
      "ала": 8784,
      "третьего": 8785,
      "выяснить": 8786,
      "яви": 8787,
      "задержаны": 8788,
      "ситуацией": 8789,
      "250": 8790,
      "чева": 8791,
      "знак": 8792,
      "нормально": 8793,
      "внесен": 8794,
      "журнала": 8795,
      "любовь": 8796,
      "въезд": 8797,
      "Веро": 8798,
      "весе": 8799,
      "требований": 8800,
      "резонан": 8801,
      "охраны": 8802,
      "студентов": 8803,
      "тать": 8804,
      "переме": 8805,
      "Иванов": 8806,
      "пользоваться": 8807,
      "Бон": 8808,
      "Зу": 8809,
      "гомо": 8810,
      "содержания": 8811,
      "XI": 8812,
      "нную": 8813,
      "вопросе": 8814,
      "крае": 8815,
      "мотива": 8816,
      "меньшин": 8817,
      "финансирование": 8818,
      "Гран": 8819,
      "скорость": 8820,
      "испытания": 8821,
      "пространство": 8822,
      "нарушении": 8823,
      "показыва": 8824,
      "сибир": 8825,
      "значения": 8826,
      "Новая": 8827,
      "матчи": 8828,
      "сайта": 8829,
      "ликвида": 8830,
      "ri": 8831,
      "приобрет": 8832,
      "заболеваний": 8833,
      "вни": 8834,
      "советских": 8835,
      "арестован": 8836,
      "водов": 8837,
      "ада": 8838,
      "нив": 8839,
      "чьи": 8840,
      "астро": 8841,
      "Соответ": 8842,
      "инициативу": 8843,
      "сало": 8844,
      "личной": 8845,
      "целей": 8846,
      "Mar": 8847,
      "Обы": 8848,
      "внезап": 8849,
      "кости": 8850,
      "вати": 8851,
      "спикер": 8852,
      "открытия": 8853,
      "Воро": 8854,
      "поездки": 8855,
      "повлиять": 8856,
      "жел": 8857,
      "живо": 8858,
      "молодые": 8859,
      "Порту": 8860,
      "Игра": 8861,
      "наслед": 8862,
      "неплохо": 8863,
      "выйдет": 8864,
      "Васили": 8865,
      "Guard": 8866,
      "холо": 8867,
      "стая": 8868,
      "сег": 8869,
      "откло": 8870,
      "поздно": 8871,
      "Екатерина": 8872,
      "Гонкон": 8873,
      "биологи": 8874,
      "футбол": 8875,
      "щена": 8876,
      "заключил": 8877,
      "огра": 8878,
      "бесс": 8879,
      "надеется": 8880,
      "квартир": 8881,
      "Такой": 8882,
      "пункт": 8883,
      "описа": 8884,
      "заявлений": 8885,
      "ec": 8886,
      "основания": 8887,
      "ровало": 8888,
      "капитала": 8889,
      "ТБ": 8890,
      "жар": 8891,
      "частных": 8892,
      "чкой": 8893,
      "законодательство": 8894,
      "усы": 8895,
      "мети": 8896,
      "британский": 8897,
      "диагности": 8898,
      "блоге": 8899,
      "опасения": 8900,
      "христи": 8901,
      "числи": 8902,
      "рассматривать": 8903,
      "мара": 8904,
      "ощущение": 8905,
      "проводят": 8906,
      "Спи": 8907,
      "лливу": 8908,
      "Евросоюз": 8909,
      "известен": 8910,
      "добавив": 8911,
      "Жа": 8912,
      "бии": 8913,
      "наук": 8914,
      "даст": 8915,
      "надежду": 8916,
      "скандала": 8917,
      "Guardian": 8918,
      "школ": 8919,
      "кримина": 8920,
      "фабри": 8921,
      "скорости": 8922,
      "igh": 8923,
      "подал": 8924,
      "заявляют": 8925,
      "вяз": 8926,
      "Янукович": 8927,
      "оформи": 8928,
      "причастности": 8929,
      "обвинений": 8930,
      "готовности": 8931,
      "красо": 8932,
      "Минске": 8933,
      "производителей": 8934,
      "начнет": 8935,
      "возможным": 8936,
      "акцию": 8937,
      "начинается": 8938,
      "тическая": 8939,
      "структуры": 8940,
      "опрошенных": 8941,
      "лоб": 8942,
      "Саудовской": 8943,
      "жную": 8944,
      "дик": 8945,
      "сборную": 8946,
      "соцсети": 8947,
      "удовлетво": 8948,
      "занимался": 8949,
      "собственные": 8950,
      "разговора": 8951,
      "отечествен": 8952,
      "шал": 8953,
      "смяг": 8954,
      "тное": 8955,
      "ограничен": 8956,
      "Севасто": 8957,
      "падает": 8958,
      "Поскольку": 8959,
      "фра": 8960,
      "стки": 8961,
      "рубежом": 8962,
      "бак": 8963,
      "снижения": 8964,
      "детали": 8965,
      "телеканал": 8966,
      "съемо": 8967,
      "85": 8968,
      "бук": 8969,
      "ob": 8970,
      "Оно": 8971,
      "потерял": 8972,
      "приблизи": 8973,
      "планах": 8974,
      "Защи": 8975,
      "опере": 8976,
      "разрешение": 8977,
      "резюми": 8978,
      "800": 8979,
      "Фло": 8980,
      "подозреваемых": 8981,
      "Челове": 8982,
      "оказывается": 8983,
      "приме": 8984,
      "хиру": 8985,
      "регла": 8986,
      "ствова": 8987,
      "долг": 8988,
      "слухи": 8989,
      "ton": 8990,
      "патрио": 8991,
      "сердце": 8992,
      "мами": 8993,
      "Сара": 8994,
      "достичь": 8995,
      "прийти": 8996,
      "перечис": 8997,
      "прибыль": 8998,
      "резиден": 8999,
      "имущества": 9000,
      "Атлан": 9001,
      "преступление": 9002,
      "Главное": 9003,
      "описы": 9004,
      "внед": 9005,
      "вяза": 9006,
      "шенной": 9007,
      "Владимиру": 9008,
      "новогод": 9009,
      "вдох": 9010,
      "ющейся": 9011,
      "чим": 9012,
      "продажу": 9013,
      "осталась": 9014,
      "Куд": 9015,
      "медици": 9016,
      "звуча": 9017,
      "опол": 9018,
      "артиста": 9019,
      "Tube": 9020,
      "нился": 9021,
      "подви": 9022,
      "Навер": 9023,
      "нейтра": 9024,
      "военную": 9025,
      "сенатор": 9026,
      "заба": 9027,
      "верени": 9028,
      "ведущих": 9029,
      "Республики": 9030,
      "сирийской": 9031,
      "ребята": 9032,
      "опасность": 9033,
      "ПК": 9034,
      "прессы": 9035,
      "письме": 9036,
      "лили": 9037,
      "дорогу": 9038,
      "кову": 9039,
      "собственности": 9040,
      "ph": 9041,
      "гне": 9042,
      "питания": 9043,
      "категорически": 9044,
      "политическую": 9045,
      "сные": 9046,
      "Вместо": 9047,
      "изучи": 9048,
      "главная": 9049,
      "русских": 9050,
      "секретаря": 9051,
      "полномочия": 9052,
      "участок": 9053,
      "олигар": 9054,
      "робо": 9055,
      "диви": 9056,
      "Воору": 9057,
      "приговора": 9058,
      "Group": 9059,
      "шенные": 9060,
      "половину": 9061,
      "YouTube": 9062,
      "Тра": 9063,
      "веру": 9064,
      "разобраться": 9065,
      "Al": 9066,
      "крепи": 9067,
      "ждением": 9068,
      "футболистов": 9069,
      "инспе": 9070,
      "ходила": 9071,
      "специализи": 9072,
      "получат": 9073,
      "Луганской": 9074,
      "брасы": 9075,
      "рим": 9076,
      "личного": 9077,
      "Последний": 9078,
      "парк": 9079,
      "ослож": 9080,
      "Северо": 9081,
      "остан": 9082,
      "содержание": 9083,
      "игроки": 9084,
      "ровая": 9085,
      "указ": 9086,
      "вшимся": 9087,
      "eing": 9088,
      "ЦИК": 9089,
      "ционном": 9090,
      "меняется": 9091,
      "причинам": 9092,
      "прогре": 9093,
      "заявив": 9094,
      "Манчестер": 9095,
      "Участ": 9096,
      "ожидать": 9097,
      "фирмы": 9098,
      "привели": 9099,
      "ищ": 9100,
      "ческому": 9101,
      "днях": 9102,
      "смартфо": 9103,
      "среды": 9104,
      "впечатление": 9105,
      "Спартака": 9106,
      "требуется": 9107,
      "картину": 9108,
      "Стар": 9109,
      "Гол": 9110,
      "Covid": 9111,
      "информи": 9112,
      "аги": 9113,
      "бази": 9114,
      "контен": 9115,
      "знаете": 9116,
      "вещества": 9117,
      "государственные": 9118,
      "возвращение": 9119,
      "публику": 9120,
      "превышает": 9121,
      "советской": 9122,
      "писто": 9123,
      "самбле": 9124,
      "кампанию": 9125,
      "проигры": 9126,
      "лау": 9127,
      "пье": 9128,
      "украинская": 9129,
      "побереж": 9130,
      "Ответ": 9131,
      "утся": 9132,
      "оценке": 9133,
      "совету": 9134,
      "Le": 9135,
      "началом": 9136,
      "супруга": 9137,
      "проведении": 9138,
      "бас": 9139,
      "портре": 9140,
      "ёт": 9141,
      "прогноз": 9142,
      "Джонсон": 9143,
      "обращении": 9144,
      "Благода": 9145,
      "слабо": 9146,
      "американская": 9147,
      "Шот": 9148,
      "сани": 9149,
      "Сбер": 9150,
      "прину": 9151,
      "городского": 9152,
      "долгое": 9153,
      "куб": 9154,
      "Известно": 9155,
      "эксперта": 9156,
      "насле": 9157,
      "59": 9158,
      "ПС": 9159,
      "собственных": 9160,
      "инжен": 9161,
      "стера": 9162,
      "спецслужбы": 9163,
      "Ситуация": 9164,
      "Нафто": 9165,
      "хоккей": 9166,
      "государством": 9167,
      "сово": 9168,
      "территорий": 9169,
      "RT": 9170,
      "социальные": 9171,
      "ждал": 9172,
      "новому": 9173,
      "региональных": 9174,
      "сочета": 9175,
      "занимаются": 9176,
      "рейтинге": 9177,
      "чился": 9178,
      "называли": 9179,
      "Михай": 9180,
      "молодежи": 9181,
      "ец": 9182,
      "обоих": 9183,
      "регионального": 9184,
      "стаграме": 9185,
      "плюс": 9186,
      "Бразилии": 9187,
      "напротив": 9188,
      "состоялась": 9189,
      "подробности": 9190,
      "допустить": 9191,
      "эскала": 9192,
      "ослаб": 9193,
      "сторонники": 9194,
      "общий": 9195,
      "чувство": 9196,
      "вступа": 9197,
      "услов": 9198,
      "Судя": 9199,
      "злоупотреб": 9200,
      "прести": 9201,
      "лыми": 9202,
      "певица": 9203,
      "Слова": 9204,
      "перспективе": 9205,
      "тков": 9206,
      "выросла": 9207,
      "преподава": 9208,
      "порно": 9209,
      "месяцы": 9210,
      "собрать": 9211,
      "претензии": 9212,
      "Boeing": 9213,
      "водят": 9214,
      "серьезных": 9215,
      "сорат": 9216,
      "изданию": 9217,
      "родственники": 9218,
      "получится": 9219,
      "районов": 9220,
      "финансовые": 9221,
      "бун": 9222,
      "Норве": 9223,
      "гала": 9224,
      "Бой": 9225,
      "помню": 9226,
      "провела": 9227,
      "изы": 9228,
      "Том": 9229,
      "склады": 9230,
      "группой": 9231,
      "нынешней": 9232,
      "ell": 9233,
      "использовали": 9234,
      "фронта": 9235,
      "предме": 9236,
      "вторая": 9237,
      "украинским": 9238,
      "Большой": 9239,
      "66": 9240,
      "Джи": 9241,
      "рисо": 9242,
      "попытке": 9243,
      "фар": 9244,
      "стоять": 9245,
      "Говоря": 9246,
      "жилье": 9247,
      "Национального": 9248,
      "Геннадий": 9249,
      "боре": 9250,
      "статью": 9251,
      "единственным": 9252,
      "полет": 9253,
      "ударов": 9254,
      "понял": 9255,
      "Следова": 9256,
      "позволить": 9257,
      "искрен": 9258,
      "бомбардиров": 9259,
      "Бур": 9260,
      "выступают": 9261,
      "гель": 9262,
      "заместителя": 9263,
      "визит": 9264,
      "мониторинга": 9265,
      "визион": 9266,
      "обсуждать": 9267,
      "Сим": 9268,
      "основные": 9269,
      "the": 9270,
      "договориться": 9271,
      "понадо": 9272,
      "театре": 9273,
      "энергетики": 9274,
      "педаго": 9275,
      "рией": 9276,
      "Теле": 9277,
      "договоренности": 9278,
      "120": 9279,
      "Роснефти": 9280,
      "Европа": 9281,
      "Ученые": 9282,
      "сообщений": 9283,
      "полный": 9284,
      "ложения": 9285,
      "альянса": 9286,
      "%).": 9287,
      "забил": 9288,
      "перепи": 9289,
      "тилась": 9290,
      "угодно": 9291,
      "юр": 9292,
      "однозна": 9293,
      "предостав": 9294,
      "высокие": 9295,
      "артилле": 9296,
      "квалифици": 9297,
      "пенсии": 9298,
      "церковь": 9299,
      "Финлян": 9300,
      "рена": 9301,
      "Роберт": 9302,
      "pen": 9303,
      "бия": 9304,
      "головой": 9305,
      "яху": 9306,
      "поиско": 9307,
      "темы": 9308,
      "Рады": 9309,
      "уполномо": 9310,
      "шир": 9311,
      "серде": 9312,
      "заражения": 9313,
      "51": 9314,
      "разделя": 9315,
      "поддержка": 9316,
      "инициативы": 9317,
      "иной": 9318,
      "знача": 9319,
      "контролем": 9320,
      "долга": 9321,
      "эксперимента": 9322,
      "вынес": 9323,
      "свидетелей": 9324,
      "широко": 9325,
      "Результа": 9326,
      "доклада": 9327,
      "топлива": 9328,
      "Таджи": 9329,
      "судьба": 9330,
      "волон": 9331,
      "маги": 9332,
      "суверени": 9333,
      "сообщал": 9334,
      "двигаться": 9335,
      "кив": 9336,
      "Наши": 9337,
      "Бориса": 9338,
      "швед": 9339,
      "обратились": 9340,
      "Интерес": 9341,
      "тайме": 9342,
      "существуют": 9343,
      "неизбе": 9344,
      "появления": 9345,
      "организацию": 9346,
      "Стани": 9347,
      "Сло": 9348,
      "старше": 9349,
      "открыть": 9350,
      "говорю": 9351,
      "комеди": 9352,
      "больных": 9353,
      "паспорт": 9354,
      "участвовал": 9355,
      "последствий": 9356,
      "следствием": 9357,
      "планеты": 9358,
      "конгресс": 9359,
      "открыл": 9360,
      "Анали": 9361,
      "Елиза": 9362,
      "ох": 9363,
      "пола": 9364,
      "ректор": 9365,
      "однажды": 9366,
      "фильмы": 9367,
      "принимал": 9368,
      "судна": 9369,
      "современной": 9370,
      "российскому": 9371,
      "Кирилл": 9372,
      "расчет": 9373,
      "национальных": 9374,
      "мок": 9375,
      "Вообще": 9376,
      "Около": 9377,
      "ехала": 9378,
      "попала": 9379,
      "Фина": 9380,
      "набра": 9381,
      "ставку": 9382,
      "вакцины": 9383,
      "Лос": 9384,
      "новей": 9385,
      "возобнови": 9386,
      "Барак": 9387,
      "покинул": 9388,
      "кинемато": 9389,
      "шаги": 9390,
      "камеры": 9391,
      "НСН": 9392,
      "жителям": 9393,
      "дополнительных": 9394,
      "данной": 9395,
      "шена": 9396,
      "террористов": 9397,
      "подверга": 9398,
      "кораблей": 9399,
      "иллю": 9400,
      "Белый": 9401,
      "Нетань": 9402,
      "предпоч": 9403,
      "защищать": 9404,
      "%)": 9405,
      "достоин": 9406,
      "Штатов": 9407,
      "цифры": 9408,
      "Нетаньяху": 9409,
      "Краснодар": 9410,
      "одни": 9411,
      "поддержал": 9412,
      "Вадим": 9413,
      "тел": 9414,
      "взор": 9415,
      "инфекции": 9416,
      "ure": 9417,
      "ане": 9418,
      "еров": 9419,
      "ложил": 9420,
      "дора": 9421,
      "стических": 9422,
      "Подмосковье": 9423,
      "стимули": 9424,
      "тс": 9425,
      "Стали": 9426,
      "ваш": 9427,
      "сигнал": 9428,
      "Сообща": 9429,
      "поступ": 9430,
      "стройки": 9431,
[...]
